10148
<pad> 0
<bos> 1
<eos> 2
unk 3
, 4
. 5
the 6
and 7
in 8
und 9
to 10
die 11
of 12
a 13
that 14
i 15
der 16
sie 17
it 18
das 19
ich 20
&quot; 21
es 22
you 23
ist 24
is 25
we 26
wir 27
zu 28
&apos;s 29
so 30
was 31
this 32
? 33
ein 34
-- 35
von 36
an 37
eine 38
dass 39
: 40
nicht 41
den 42
they 43
on 44
mit 45
for 46
er 47
are 48
wie 49
auf 50
have 51
what 52
but 53
man 54
with 55
can 56
sich 57
all 58
sind 59
aber 60
für 61
haben 62
wenn 63
als 64
&apos;t 65
as 66
at 67
be 68
about 69
there 70
um 71
also 72
war 73
diese 74
do 75
one 76
not 77
-@@ 78
im 79
my 80
&apos;re 81
ver@@ 82
people 83
dem 84
if 85
he 86
like 87
or 88
from 89
einen 90
er@@ 91
an@@ 92
des 93
uns 94
now 95
these 96
be@@ 97
just 98
können 99
me 100
oder 101
werden 102
our 103
hier 104
re@@ 105
s@@ 106
aus 107
ge@@ 108
because 109
when 110
hat 111
very 112
un@@ 113
über 114
out 115
how 116
s 117
by 118
einer 119
– 120
auch 121
te 122
up 123
know 124
einem 125
them 126
kann 127
going 128
dann 129
sehr 130
us 131
which 132
here 133
more 134
see 135
wird 136
k@@ 137
had 138
nur 139
think 140
ing 141
t@@ 142
ed 143
gibt 144
who 145
your 146
menschen 147
ten 148
really 149
ihnen 150
will 151
get 152
their 153
en@@ 154
sehen 155
then 156
were 157
mich 158
e@@ 159
would 160
a@@ 161
in@@ 162
ab@@ 163
sein 164
&apos;ve 165
d@@ 166
world 167
g@@ 168
time 169
dieser 170
some 171
etwas 172
&apos;m 173
aus@@ 174
t 175
ein@@ 176
nach 177
noch 178
way 179
has 180
habe 181
don 182
actually 183
b@@ 184
en 185
o@@ 186
am 187
into 188
go 189
mir 190
ti@@ 191
where 192
; 193
vor 194
things 195
i@@ 196
bei 197
e 198
years 199
alle 200
mehr 201
welt 202
- 203
p@@ 204
c@@ 205
other 206
no 207
ch@@ 208
well 209
could 210
want 211
ihre 212
leben 213
machen 214
y 215
li@@ 216
de@@ 217
meine 218
h@@ 219
da 220
zum 221
make 222
di@@ 223
m@@ 224
weil 225
sch@@ 226
r@@ 227
right 228
been 229
said 230
new 231
ma@@ 232
dies 233
g 234
m 235
nun 236
z@@ 237
wurde 238
wirklich 239
gen 240
she 241
u@@ 242
art 243
dieses 244
f@@ 245
something 246
kind 247
st@@ 248
auf@@ 249
al@@ 250
than 251
se@@ 252
durch 253
al 254
ung 255
first 256
two 257
le@@ 258
those 259
immer 260
ar@@ 261
his 262
look 263
zu@@ 264
tun 265
unsere 266
thing 267
zeit 268
ri@@ 269
little 270
vor@@ 271
jetzt 272
ihr 273
got 274
end 275
&apos; 276
wissen 277
de 278
y@@ 279
much 280
o 281
l@@ 282
um@@ 283
life 284
hatte 285
back 286
work 287
say 288
d 289
ent@@ 290
ter 291
her 292
leute 293
most 294
n@@ 295
viel 296
over 297
keine 298
viele 299
ge 300
über@@ 301
diesem 302
se 303
problem 304
only 305
ted 306
ro@@ 307
sagen 308
eines 309
du 310
even 311
denn 312
ts 313
take 314
sagte 315
mal 316
dinge 317
able 318
system 319
many 320
diesen 321
zwei 322
einfach 323
waren 324
el@@ 325
did 326
or@@ 327
need 328
bin 329
alles 330
jahren 331
po@@ 332
wo 333
good 334
co@@ 335
müssen 336
lot 337
andere 338
le 339
around 340
let 341
why 342
down 343
ungen 344
come 345
gehen 346
on@@ 347
use 348
v@@ 349
anderen 350
mein 351
geht 352
w@@ 353
bi@@ 354
&apos;ll 355
würde 356
damit 357
k 358
different 359
bis 360
every 361
ie 362
through 363
zur 364
vielleicht 365
si@@ 366
selbst 367
! 368
day 369
pro@@ 370
sten 371
lo@@ 372
gut 373
ert 374
at@@ 375
p 376
ra@@ 377
same 378
th@@ 379
as@@ 380
am@@ 381
being 382
put 383
its 384
her@@ 385
land 386
st 387
jahre 388
la@@ 389
l 390
ds 391
kommen 392
doing 393
ers 394
ger 395
ni@@ 396
ische 397
ende 398
ta@@ 399
es@@ 400
mi@@ 401
con@@ 402
eren 403
heute 404
ischen 405
geben 406
me@@ 407
men 408
three 409
te@@ 410
muss 411
ja 412
bo@@ 413
warum 414
geschichte 415
called 416
schon 417
talk 418
any 419
10 420
dis@@ 421
einige 422
j@@ 423
macht 424
ck@@ 425
ber@@ 426
made 427
lassen 428
percent 429
&apos;d 430
ke 431
n 432
b 433
person 434
möchte 435
ly 436
wieder 437
ch 438
ne@@ 439
tatsächlich 440
h 441
ad@@ 442
he@@ 443
today 444
ated 445
great 446
after 447
sp@@ 448
gt 449
is@@ 450
mo@@ 451
big 452
liche 453
denken 454
par@@ 455
ation 456
kinder 457
tion 458
davon 459
ha@@ 460
tell 461
dort 462
ck 463
it@@ 464
human 465
year 466
ganz 467
ve 468
vi@@ 469
c 470
unter@@ 471
ging 472
op@@ 473
genau 474
ex@@ 475
hatten 476
last 477
ter@@ 478
mar@@ 479
seine 480
drei 481
fact 482
another 483
ger@@ 484
find 485
ken 486
sa@@ 487
ins 488
own 489
form 490
ob 491
darüber 492
chen 493
pe@@ 494
idea 495
könnte 496
lichen 497
ihn 498
lich 499
paar 500
ent 501
ei@@ 502
didn 503
change 504
ate 505
give 506
fe@@ 507
before 508
gi@@ 509
jahr 510
sh@@ 511
der@@ 512
den@@ 513
ur@@ 514
ac@@ 515
do@@ 516
wollen 517
nehmen 518
went 519
should 520
to@@ 521
20 522
teil 523
r 524
started 525
werde 526
weise 527
ern 528
thought 529
ste 530
design 531
ko@@ 532
tions 533
ting 534
tag 535
pi@@ 536
show 537
story 538
au@@ 539
off 540
meiner 541
sti@@ 542
ten@@ 543
ihren 544
com@@ 545
f 546
finden 547
hin@@ 548
3@@ 549
weg 550
wurden 551
sen@@ 552
ding 553
never 554
start 555
better 556
stellen 557
course 558
again 559
während 560
important 561
still 562
pa@@ 563
denen 564
kommt 565
ste@@ 566
ru@@ 567
fi@@ 568
frage 569
moment 570
bu@@ 571
jeder 572
gab 573
per@@ 574
sen 575
im@@ 576
ce 577
su@@ 578
zwischen 579
him 580
tet 581
tra@@ 582
does 583
part 584
denke 585
water 586
gemacht 587
pre@@ 588
might 589
next 590
dazu 591
gen@@ 592
ago 593
beispiel 594
each 595
together 596
place 597
technology 598
wäre 599
used 600
brain 601
vom 602
sondern 603
ok 604
unserer 605
ho@@ 606
sogar 607
came 608
neue 609
okay 610
no@@ 611
bit 612
tes 613
thank 614
ä@@ 615
... 616
sk@@ 617
bringen 618
mon@@ 619
glaube 620
doch 621
computer 622
da@@ 623
ungs@@ 624
kein 625
unter 626
ar 627
x 628
ale 629
unser 630
so@@ 631
50 632
nen 633
man@@ 634
ir@@ 635
long 636
qu@@ 637
for@@ 638
mu@@ 639
natürlich 640
na@@ 641
mit@@ 642
ks 643
est 644
zeigen 645
em 646
kon@@ 647
el 648
arbeit 649
fa@@ 650
car@@ 651
too 652
ihrer 653
arbeiten 654
weiter 655
ohne 656
.@@ 657
einmal 658
between 659
million 660
fall 661
tr@@ 662
point 663
hand 664
school 665
z 666
few 667
em@@ 668
weiß 669
gerade 670
looking 671
sieht 672
ating 673
oh 674
hi@@ 675
nie 676
fen 677
wa@@ 678
war@@ 679
nichts 680
children 681
dafür 682
mean 683
durch@@ 684
würden 685
30 686
information 687
try 688
ben 689
ö@@ 690
sort 691
ere 692
du@@ 693
maybe 694
done 695
ty 696
ine 697
prozent 698
passiert 699
zurück 700
ever 701
gra@@ 702
verstehen 703
erste 704
sta@@ 705
found 706
ges 707
less 708
data 709
ous 710
ded 711
erte 712
whole 713
love 714
question 715
inter@@ 716
vielen 717
schen 718
doesn 719
live 720
cht 721
red 722
br@@ 723
w 724
zi@@ 725
kt 726
daran 727
fragen 728
light 729
je@@ 730
sprechen 731
sc@@ 732
bar 733
sagt 734
gu@@ 735
ersten 736
example 737
real 738
millionen 739
may 740
understand 741
wanted 742
ses 743
bild 744
four 745
gel@@ 746
idee 747
isch 748
konnte 749
we@@ 750
wei@@ 751
ct 752
dollar 753
ganze 754
working 755
große 756
old 757
using 758
women 759
age 760
letzten 761
min@@ 762
son 763
wer 764
dabei 765
ic 766
trying 767
fast 768
etwa 769
ens 770
city 771
elle 772
call 773
us@@ 774
bekommen 775
welche 776
könnten 777
times 778
mis@@ 779
ze 780
wi@@ 781
ben@@ 782
nach@@ 783
away 784
power 785
internet 786
wasser 787
4@@ 788
kids 789
money 790
et@@ 791
seite 792
ange@@ 793
ction 794
tive 795
sollte 796
ant 797
everything 798
kam 799
100 800
always 801
ot@@ 802
tri@@ 803
ally 804
believe 805
space 806
ons 807
il@@ 808
frauen 809
feel 810
geld 811
five 812
all@@ 813
hand@@ 814
sollten 815
ziemlich 816
2 817
ak@@ 818
bar@@ 819
daten 820
enden 821
meisten 822
ary 823
wollte 824
sache 825
lei@@ 826
ves 827
country 828
meinen 829
kan@@ 830
king 831
hal@@ 832
help 833
men@@ 834
ph@@ 835
ser@@ 836
tionen 837
meinem 838
lin@@ 839
thinking 840
ans 841
essen 842
jemand 843
d-@@ 844
number 845
comes 846
create 847
wichtig 848
food 849
ps 850
pri@@ 851
ka@@ 852
ker 853
u 854
zen 855
dar@@ 856
ms 857
kleinen 858
gesehen 859
ü@@ 860
dr@@ 861
took 862
gesch@@ 863
second 864
stand 865
technologie 866
tion@@ 867
cken 868
halten 869
ol@@ 870
mann 871
ft 872
str@@ 873
ges@@ 874
darauf 875
energy 876
5@@ 877
video 878
vier 879
science 880
tu@@ 881
om@@ 882
brauchen 883
sense 884
lernen 885
th 886
ellen 887
means 888
ul@@ 889
x@@ 890
eigentlich 891
zusammen 892
weniger 893
making 894
fo@@ 895
ment 896
wor@@ 897
chte 898
zusammen@@ 899
china 900
ff@@ 901
future 902
besser 903
getting 904
mer@@ 905
raum 906
ster@@ 907
side 908
become 909
quite 910
ster 911
15 912
enough 913
tung 914
bri@@ 915
best 916
dra@@ 917
small 918
building 919
großen 920
pl@@ 921
ganzen 922
says 923
probably 924
hei@@ 925
menge 926
bei@@ 927
los 928
bedeutet 929
hen 930
det 931
dachte 932
&#91; 933
ability 934
&#93; 935
che 936
home 937
tro@@ 938
social 939
ag@@ 940
eln 941
half 942
play 943
without 944
licher 945
ihm 946
tt@@ 947
earth 948
glauben 949
tz@@ 950
zeigt 951
gr@@ 952
rei@@ 953
kleine 954
unseren 955
left 956
3 957
cor@@ 958
body 959
e-@@ 960
stuff 961
interesting 962
kl@@ 963
talking 964
ihrem 965
che@@ 966
har@@ 967
punkt 968
chten 969
ways 970
dollars 971
gehirn 972
room 973
tic 974
lebens@@ 975
set 976
ties 977
schauen 978
africa 979
versuchen 980
coming 981
ble 982
re 983
star@@ 984
happened 985
alen 986
danke 987
line 988
jedes 989
ort 990
spielen 991
gegen 992
seen 993
ab 994
grund 995
ci@@ 996
frau 997
allen 998
6@@ 999
ja@@ 1000
ll@@ 1001
build 1002
nein 1003
trans@@ 1004
führen 1005
ies 1006
york 1007
simple 1008
ju@@ 1009
7@@ 1010
global 1011
jeden 1012
ask 1013
bes@@ 1014
anything 1015
ausge@@ 1016
cted 1017
ance 1018
licht 1019
indem 1020
erung 1021
flo@@ 1022
goes 1023
while 1024
seit 1025
and@@ 1026
planet 1027
8 1028
project 1029
teilen 1030
beim 1031
days 1032
stra@@ 1033
bauen 1034
pretty 1035
makes 1036
nutzen 1037
ca@@ 1038
move 1039
tan@@ 1040
lives 1041
per 1042
erde 1043
problems 1044
ali@@ 1045
zukunft 1046
cher 1047
ne 1048
gesagt 1049
health 1050
such 1051
case 1052
go@@ 1053
told 1054
tre@@ 1055
across 1056
high 1057
ors 1058
5 1059
ell 1060
schaffen 1061
gl@@ 1062
ner 1063
film 1064
once 1065
happen 1066
ws 1067
living 1068
res@@ 1069
bad 1070
jo@@ 1071
car 1072
book 1073
seiner 1074
basically 1075
wer@@ 1076
keinen 1077
wahrscheinlich 1078
sub@@ 1079
eigenen 1080
1 1081
ing@@ 1082
erten 1083
fünf 1084
4 1085
hin 1086
hätte 1087
else 1088
the@@ 1089
saw 1090
sts 1091
gs 1092
gute 1093
ones 1094
stehen 1095
imagine 1096
yet 1097
picture 1098
test 1099
später 1100
job 1101
1@@ 1102
8@@ 1103
ts@@ 1104
40 1105
care 1106
countries 1107
zurück@@ 1108
happens 1109
fl@@ 1110
cy 1111
ken@@ 1112
tig 1113
iert 1114
sche 1115
ung@@ 1116
having 1117
ku@@ 1118
stellt 1119
mind 1120
business 1121
family 1122
neu@@ 1123
tor@@ 1124
stadt 1125
ings 1126
arten 1127
heraus 1128
jede 1129
team 1130
9@@ 1131
rate 1132
hard 1133
zer@@ 1134
experience 1135
cht@@ 1136
ma 1137
super@@ 1138
setzen 1139
des@@ 1140
ged 1141
sure 1142
asked 1143
19@@ 1144
later 1145
6 1146
lu@@ 1147
nature 1148
probleme 1149
young 1150
ari@@ 1151
sah 1152
s-@@ 1153
schule 1154
sicher 1155
name 1156
hö@@ 1157
kom@@ 1158
lange 1159
ideas 1160
stri@@ 1161
fu@@ 1162
energie 1163
tigen 1164
learn 1165
anzu@@ 1166
nu@@ 1167
funktioniert 1168
pro 1169
ungefähr 1170
20@@ 1171
ver 1172
ke@@ 1173
lang 1174
ful 1175
ton 1176
wo@@ 1177
mor@@ 1178
inside 1179
pen@@ 1180
et 1181
pres@@ 1182
pp@@ 1183
hu@@ 1184
welt@@ 1185
cu@@ 1186
richtig 1187
än@@ 1188
pu@@ 1189
wenig 1190
everybody 1191
7 1192
y-@@ 1193
ga@@ 1194
history 1195
six 1196
mutter 1197
konnten 1198
ler 1199
kte 1200
process 1201
top 1202
over@@ 1203
liches 1204
&amp; 1205
sur@@ 1206
rest 1207
helfen 1208
state 1209
states 1210
systems 1211
reason 1212
open 1213
child 1214
erzählen 1215
ell@@ 1216
buch 1217
saying 1218
kor@@ 1219
zwei@@ 1220
nothing 1221
cks 1222
ure 1223
billion 1224
tieren 1225
both 1226
single 1227
lan@@ 1228
ely 1229
under@@ 1230
sing 1231
oft 1232
recht 1233
ches 1234
heißt 1235
neuen 1236
körper 1237
kten 1238
within 1239
genug 1240
whether 1241
erst 1242
almost 1243
liebe 1244
schnell 1245
bel@@ 1246
sage 1247
looks 1248
far 1249
ba@@ 1250
dung 1251
bring 1252
cells 1253
ity 1254
material 1255
mm@@ 1256
tern 1257
möglich 1258
ars 1259
tete 1260
level 1261
ideen 1262
tige 1263
already 1264
mil@@ 1265
tation 1266
music 1267
weit 1268
nächsten 1269
ry 1270
els 1271
wrong 1272
hören 1273
braucht 1274
cancer 1275
dan@@ 1276
afrika 1277
remember 1278
alt 1279
gruppe 1280
keep 1281
anders 1282
gets 1283
% 1284
wunder@@ 1285
unserem 1286
ber 1287
house 1288
under 1289
ban@@ 1290
bisschen 1291
gern 1292
guy 1293
mal@@ 1294
true 1295
einander 1296
ß@@ 1297
sion 1298
les 1299
elt 1300
begann 1301
possible 1302
fol@@ 1303
ven@@ 1304
fan@@ 1305
projekt 1306
reden 1307
0s 1308
order 1309
fr@@ 1310
bio@@ 1311
dank 1312
hope 1313
ieren 1314
heard 1315
ments 1316
leuten 1317
seinen 1318
community 1319
ßen 1320
heit 1321
zed 1322
darum 1323
beautiful 1324
looked 1325
überall 1326
gro@@ 1327
euch 1328
bevor 1329
ates 1330
bor@@ 1331
often 1332
schi@@ 1333
sachen 1334
manchmal 1335
matter 1336
group 1337
yes 1338
ap@@ 1339
ters 1340
face 1341
out@@ 1342
teil@@ 1343
fer@@ 1344
är@@ 1345
schul@@ 1346
planeten 1347
ki@@ 1348
ents 1349
piece 1350
entwickelt 1351
research 1352
built 1353
public 1354
fe 1355
mittel@@ 1356
geb@@ 1357
gehört 1358
por@@ 1359
read 1360
india 1361
je 1362
sei 1363
ator 1364
ness 1365
ling 1366
lich@@ 1367
months 1368
can@@ 1369
united 1370
mel@@ 1371
ner@@ 1372
fer 1373
works 1374
amazing 1375
answer 1376
bur@@ 1377
god 1378
gh@@ 1379
ob@@ 1380
natur 1381
late 1382
bt 1383
stories 1384
wert 1385
head 1386
universe 1387
someone 1388
9 1389
milliarden 1390
cre@@ 1391
wieder@@ 1392
situation 1393
taking 1394
unternehmen 1395
tional 1396
sagten 1397
ved 1398
ence 1399
myself 1400
gend 1401
zellen 1402
col@@ 1403
ig@@ 1404
places 1405
ase 1406
seinem 1407
va@@ 1408
liegt 1409
gener@@ 1410
words 1411
education 1412
kennen 1413
besch@@ 1414
instead 1415
mädchen 1416
since 1417
dro@@ 1418
informationen 1419
sha@@ 1420
wal@@ 1421
gel 1422
tze 1423
until 1424
eins 1425
nennen 1426
tur@@ 1427
anderes 1428
wissenschaft 1429
mer 1430
usa 1431
species 1432
yeah 1433
dna 1434
isn 1435
fahr@@ 1436
ourselves 1437
tat 1438
off@@ 1439
control 1440
ving 1441
sometimes 1442
ie@@ 1443
government 1444
ia 1445
fand 1446
front 1447
bau@@ 1448
ischer 1449
revolution 1450
night 1451
12 1452
land@@ 1453
led 1454
turn 1455
generation 1456
199@@ 1457
ces 1458
/ 1459
25 1460
tische 1461
happy 1462
decided 1463
0@@ 1464
gestellt 1465
somebody 1466
eg@@ 1467
— 1468
und@@ 1469
kr@@ 1470
erkennen 1471
nor@@ 1472
besonders 1473
mp@@ 1474
lage 1475
bilder 1476
deshalb 1477
bl@@ 1478
spiel 1479
couple 1480
middle 1481
pf@@ 1482
steht 1483
heart 1484
ene 1485
wel@@ 1486
language 1487
machte 1488
stop 1489
verändern 1490
turns 1491
rather 1492
lau@@ 1493
lichkeit 1494
zeit@@ 1495
versch@@ 1496
tä@@ 1497
heraus@@ 1498
teile 1499
stück 1500
ou@@ 1501
gleich 1502
t-@@ 1503
geschichten 1504
enti@@ 1505
gar 1506
exactly 1507
model 1508
gesellschaft 1509
sprache 1510
2@@ 1511
führt 1512
familie 1513
treffen 1514
fin@@ 1515
minuten 1516
alten 1517
gefühl 1518
namens 1519
large 1520
society 1521
kinds 1522
ev@@ 1523
sau@@ 1524
spiel@@ 1525
wasn 1526
wegen 1527
ün@@ 1528
erreichen 1529
tischen 1530
word 1531
fil@@ 1532
run 1533
bereits 1534
mü@@ 1535
klar 1536
though 1537
everyone 1538
company 1539
woman 1540
oben 1541
vater 1542
tions@@ 1543
benutzen 1544
itself 1545
act 1546
flu@@ 1547
hren 1548
auszu@@ 1549
ziehen 1550
mother 1551
sam@@ 1552
gan@@ 1553
hoch@@ 1554
completely 1555
dich 1556
indien 1557
minutes 1558
themselves 1559
musste 1560
game 1561
ations 1562
verschiedene 1563
animals 1564
news 1565
lebens 1566
hätten 1567
id 1568
students 1569
möglichkeit 1570
pan@@ 1571
irgend@@ 1572
tragen 1573
sechs 1574
cra@@ 1575
cr@@ 1576
share 1577
antwort 1578
musik 1579
evolution 1580
vo@@ 1581
gang 1582
became 1583
end@@ 1584
v 1585
stre@@ 1586
80 1587
dy 1588
fla@@ 1589
hr@@ 1590
cke 1591
enen 1592
cal 1593
shows 1594
sei@@ 1595
viel@@ 1596
sel@@ 1597
ess 1598
char@@ 1599
must 1600
kal@@ 1601
experiment 1602
haus 1603
darin 1604
innovation 1605
kat@@ 1606
pac@@ 1607
table 1608
happening 1609
america 1610
bas@@ 1611
sal@@ 1612
environment 1613
american 1614
60 1615
learned 1616
friends 1617
sto@@ 1618
created 1619
net 1620
hear 1621
gene 1622
study 1623
oil 1624
ics 1625
meter 1626
air 1627
gerne 1628
ce@@ 1629
view 1630
tiert 1631
wasser@@ 1632
huge 1633
ton@@ 1634
bil@@ 1635
weiter@@ 1636
kopf 1637
einzige 1638
gkeit 1639
os 1640
sound 1641
sho@@ 1642
hours 1643
win@@ 1644
third 1645
tten 1646
tiere 1647
ven 1648
ele@@ 1649
frei@@ 1650
jedem 1651
mittel 1652
falls 1653
auto@@ 1654
gar@@ 1655
tru@@ 1656
natural 1657
century 1658
ys 1659
bra@@ 1660
ment@@ 1661
oper@@ 1662
cur@@ 1663
einigen 1664
augen 1665
ic@@ 1666
lar@@ 1667
lie@@ 1668
besten 1669
ach@@ 1670
won 1671
nung 1672
stic 1673
arm 1674
disease 1675
stor@@ 1676
schreiben 1677
entwickeln 1678
länder 1679
lation 1680
guys 1681
sed 1682
stat@@ 1683
gte 1684
stunden 1685
tter@@ 1686
population 1687
kol@@ 1688
onen 1689
dessen 1690
innerhalb 1691
along 1692
fre@@ 1693
ß 1694
worked 1695
regi@@ 1696
bat@@ 1697
ckt 1698
niemand 1699
don@@ 1700
self-@@ 1701
irgendwie 1702
fish 1703
market 1704
sor@@ 1705
bewegen 1706
gleichen 1707
fra@@ 1708
ran@@ 1709
gott 1710
bringt 1711
wachsen 1712
questions 1713
gleiche 1714
figure 1715
center 1716
pos@@ 1717
perhaps 1718
ka 1719
tisch 1720
particular 1721
area 1722
san@@ 1723
gebracht 1724
turned 1725
moving 1726
early 1727
lässt 1728
based 1729
knew 1730
verhalten 1731
soll 1732
ern@@ 1733
schließlich 1734
national 1735
psych@@ 1736
kindern 1737
regierung 1738
against 1739
cher@@ 1740
gebäude 1741
others 1742
lots 1743
couldn 1744
pas@@ 1745
machine 1746
aufge@@ 1747
ocean 1748
sted 1749
obwohl 1750
verschiedenen 1751
up@@ 1752
18@@ 1753
zing 1754
menschlichen 1755
clo@@ 1756
gave 1757
tiven 1758
known 1759
during 1760
learning 1761
hol@@ 1762
wür@@ 1763
past 1764
lt 1765
verwenden 1766
äu@@ 1767
ked 1768
wing 1769
vorstellen 1770
schaft 1771
erhalten 1772
hor@@ 1773
ted@@ 1774
gegen@@ 1775
zei@@ 1776
möglichkeiten 1777
ur 1778
takes 1779
rec@@ 1780
hl@@ 1781
plan 1782
gleich@@ 1783
dern 1784
position 1785
lesen 1786
vision 1787
phone 1788
cally 1789
200 1790
ändern 1791
patienten 1792
least 1793
my@@ 1794
scale 1795
beiden 1796
cell 1797
cri@@ 1798
500 1799
nimmt 1800
aren 1801
bs 1802
lose 1803
cts 1804
physi@@ 1805
kre@@ 1806
nämlich 1807
outside 1808
produ@@ 1809
free 1810
ture 1811
gemein@@ 1812
eth@@ 1813
schw@@ 1814
eltern 1815
syn@@ 1816
kraft 1817
gten 1818
lösung 1819
dri@@ 1820
finally 1821
aten 1822
aller 1823
genommen 1824
father 1825
ther@@ 1826
hab@@ 1827
chter 1828
wollten 1829
ground 1830
culture 1831
dir 1832
krebs 1833
bre@@ 1834
tage 1835
difference 1836
cing 1837
chance 1838
online 1839
wonderful 1840
media 1841
ren@@ 1842
stellte 1843
ying 1844
key 1845
seven 1846
needs 1847
del@@ 1848
len 1849
entire 1850
schwer 1851
männer 1852
taken 1853
close 1854
version 1855
beginnen 1856
david 1857
ori@@ 1858
kamen 1859
unglaublich 1860
tt 1861
mus 1862
ec@@ 1863
patient 1864
ined 1865
lösen 1866
isches 1867
entwicklung 1868
wirtschaft 1869
ess@@ 1870
tal@@ 1871
kunst 1872
fähigkeit 1873
formen 1874
hlt 1875
pt 1876
na 1877
damals 1878
hoch 1879
stelle 1880
bitte 1881
yo@@ 1882
gre@@ 1883
image 1884
rück@@ 1885
green 1886
google 1887
auto 1888
ant@@ 1889
herum 1890
gri@@ 1891
glück 1892
sinn 1893
ders 1894
hnen 1895
fahren 1896
thousands 1897
versucht 1898
met 1899
kar@@ 1900
selbst@@ 1901
arti@@ 1902
force 1903
powerful 1904
drei@@ 1905
universum 1906
wir@@ 1907
fü@@ 1908
fangen 1909
wohl 1910
west 1911
stage 1912
hn@@ 1913
hause 1914
daher 1915
län@@ 1916
parts 1917
fort@@ 1918
legen 1919
voll@@ 1920
flie@@ 1921
whatever 1922
laufen 1923
tter 1924
kop@@ 1925
angst 1926
staaten 1927
kultur 1928
poli@@ 1929
yourself 1930
getan 1931
seeing 1932
changed 1933
ust 1934
fühlen 1935
kin@@ 1936
rie@@ 1937
stoff 1938
kti@@ 1939
lehr@@ 1940
uni@@ 1941
dre@@ 1942
gung 1943
zt 1944
ssen 1945
hinter 1946
nächste 1947
schön 1948
grow 1949
anti@@ 1950
behind 1951
cost 1952
tend 1953
überhaupt 1954
ls 1955
beginning 1956
far@@ 1957
schü@@ 1958
richtung 1959
sü@@ 1960
given 1961
ide@@ 1962
software 1963
voll 1964
hilfe 1965
leave 1966
walk 1967
bal@@ 1968
certain 1969
verändert 1970
eyes 1971
tut 1972
blick 1973
indi@@ 1974
normal 1975
nis 1976
visu@@ 1977
pped 1978
ani@@ 1979
rech@@ 1980
wort 1981
zwar 1982
bewegung 1983
spezi@@ 1984
tzen 1985
baren 1986
spend 1987
size 1988
son@@ 1989
krieg 1990
nachdem 1991
gene@@ 1992
fly 1993
zahlen 1994
pal@@ 1995
wind 1996
cool 1997
audience 1998
span@@ 1999
bom@@ 2000
allem 2001
parents 2002
isi@@ 2003
baby 2004
amount 2005
ini@@ 2006
bro@@ 2007
alter 2008
menschliche 2009
junge 2010
modell 2011
full 2012
street 2013
18 2014
zahl 2015
death 2016
low 2017
easy 2018
groß 2019
terms 2020
nahmen 2021
wh@@ 2022
ism 2023
neuro@@ 2024
sive 2025
ser 2026
deren 2027
schla@@ 2028
fac@@ 2029
letzte 2030
bon@@ 2031
0-@@ 2032
labor 2033
interested 2034
dau@@ 2035
gest@@ 2036
grunde 2037
pe 2038
ns 2039
cannot 2040
economic 2041
belie@@ 2042
hiv 2043
dete 2044
kurz 2045
plan@@ 2046
buy 2047
eight 2048
cho@@ 2049
tors 2050
cap@@ 2051
nan@@ 2052
pla@@ 2053
einge@@ 2054
books 2055
sterben 2056
kü@@ 2057
began 2058
common 2059
spi@@ 2060
eher 2061
cy@@ 2062
spr@@ 2063
ht 2064
maschine 2065
week 2066
dingen 2067
ats 2068
region 2069
web 2070
unten 2071
treten 2072
tiv 2073
kes 2074
bare 2075
wahr@@ 2076
mes 2077
black 2078
difficult 2079
ard 2080
field 2081
worden 2082
gone 2083
felt 2084
local 2085
sum@@ 2086
lö@@ 2087
wissenschaftler 2088
air@@ 2089
ill@@ 2090
tte 2091
erfahrung 2092
.000 2093
äl@@ 2094
cities 2095
tat@@ 2096
üb@@ 2097
krei@@ 2098
deal 2099
vis@@ 2100
wider@@ 2101
genden 2102
nahm 2103
fis@@ 2104
sin@@ 2105
enten 2106
bin@@ 2107
fanden 2108
findet 2109
eu@@ 2110
value 2111
ship 2112
ang@@ 2113
unterschied 2114
fest@@ 2115
ously 2116
medi@@ 2117
hands 2118
blue 2119
betrachten 2120
jungen 2121
welches 2122
hold 2123
friend 2124
code 2125
ien 2126
meines 2127
hy@@ 2128
eller 2129
kaufen 2130
top@@ 2131
ums 2132
needed 2133
ris@@ 2134
ned 2135
paper 2136
south 2137
lung 2138
squ@@ 2139
fru@@ 2140
len@@ 2141
muster 2142
neu 2143
simply 2144
longer 2145
ther 2146
zen@@ 2147
kur@@ 2148
weitere 2149
tief@@ 2150
jedoch 2151
mechan@@ 2152
vari@@ 2153
en-@@ 2154
haus@@ 2155
führ@@ 2156
eigene 2157
fliegen 2158
pur@@ 2159
cting 2160
blu@@ 2161
mag 2162
spent 2163
realized 2164
10@@ 2165
ker@@ 2166
anfang 2167
forschung 2168
either 2169
incredible 2170
humans 2171
mati@@ 2172
wand@@ 2173
ord@@ 2174
fel@@ 2175
boden 2176
platz 2177
personal 2178
kosten 2179
mission 2180
dig 2181
schä@@ 2182
ziel 2183
lieben 2184
step 2185
tried 2186
thema 2187
wohl@@ 2188
grund@@ 2189
fal@@ 2190
posi@@ 2191
scho@@ 2192
0,000 2193
micro@@ 2194
asi@@ 2195
sex 2196
gebaut 2197
bildung 2198
beste 2199
born 2200
cker 2201
rau@@ 2202
groß@@ 2203
körper@@ 2204
0.000 2205
forward 2206
dly 2207
growth 2208
mt 2209
schu@@ 2210
om 2211
prozess 2212
roboter 2213
chan@@ 2214
feet 2215
,@@ 2216
bes 2217
lehrer 2218
surface 2219
verbindung 2220
falsch 2221
cer@@ 2222
sitting 2223
watch 2224
inten@@ 2225
quickly 2226
prin@@ 2227
solche 2228
ice 2229
erinnern 2230
stan@@ 2231
companies 2232
atom@@ 2233
mussten 2234
clear 2235
ality 2236
bank 2237
white 2238
autos 2239
vortrag 2240
interessant 2241
complex 2242
girl 2243
lost 2244
bel 2245
hinter@@ 2246
genauso 2247
bleiben 2248
woche 2249
equ@@ 2250
markt 2251
grün@@ 2252
direkt 2253
fragte 2254
ße 2255
minute 2256
structure 2257
fro@@ 2258
suchen 2259
bereich 2260
zer 2261
pat@@ 2262
kri@@ 2263
wohn@@ 2264
publikum 2265
jobs 2266
tau@@ 2267
wouldn 2268
mas@@ 2269
knowledge 2270
wen@@ 2271
sollen 2272
zweite 2273
blo@@ 2274
growing 2275
enth@@ 2276
gei@@ 2277
fri@@ 2278
board 2279
miles 2280
zes 2281
virus 2282
weg@@ 2283
namen 2284
hü@@ 2285
pay 2286
u.s. 2287
gefunden 2288
od@@ 2289
fallen 2290
nt 2291
chen@@ 2292
sieben 2293
wahr 2294
198@@ 2295
reality 2296
selben 2297
freunde 2298
john 2299
sea 2300
wol@@ 2301
sie@@ 2302
hlen 2303
zuvor 2304
box 2305
sun 2306
,000 2307
university 2308
technologies 2309
einzu@@ 2310
il 2311
sting 2312
poor 2313
political 2314
eli@@ 2315
ame 2316
gedanken 2317
neues 2318
ologie 2319
han@@ 2320
sil@@ 2321
giving 2322
religion 2323
tin@@ 2324
danach 2325
eat 2326
economy 2327
tages 2328
pra@@ 2329
tives 2330
sch 2331
monate 2332
mine 2333
positive 2334
fun 2335
a-@@ 2336
animal 2337
fas@@ 2338
guten 2339
größte 2340
weeks 2341
oni@@ 2342
hast 2343
theorie 2344
nte 2345
pr@@ 2346
fest 2347
ales 2348
cked 2349
cking 2350
behavior 2351
morning 2352
opportunity 2353
arch@@ 2354
ften 2355
wusste 2356
ziert 2357
ta 2358
yp@@ 2359
ppe 2360
setzt 2361
fle@@ 2362
glücklich 2363
wären 2364
cul@@ 2365
hey 2366
la 2367
dat@@ 2368
plötzlich 2369
erschaffen 2370
brought 2371
developed 2372
changes 2373
gers 2374
70 2375
mag@@ 2376
ft@@ 2377
studi@@ 2378
zehn 2379
11 2380
fall@@ 2381
kli@@ 2382
besteht 2383
college 2384
ative 2385
source 2386
patients 2387
gegeben 2388
wrote 2389
cal@@ 2390
telling 2391
scientists 2392
designer 2393
program 2394
anyone 2395
digen 2396
ah 2397
schle@@ 2398
stoff@@ 2399
struktur 2400
testen 2401
anderer 2402
fing 2403
ey 2404
ig 2405
ball 2406
sy@@ 2407
90 2408
ha 2409
mikro@@ 2410
technologien 2411
cs 2412
write 2413
starting 2414
äch@@ 2415
reise 2416
cut 2417
museum 2418
gas 2419
o-@@ 2420
draußen 2421
dlich 2422
zä@@ 2423
colle@@ 2424
ill 2425
coun@@ 2426
lam@@ 2427
theory 2428
gemeinschaft 2429
sicht@@ 2430
berei@@ 2431
völlig 2432
feeling 2433
tools 2434
sters 2435
wall 2436
prote@@ 2437
vers 2438
vol@@ 2439
images 2440
gew@@ 2441
ihres 2442
technik 2443
ländern 2444
lab 2445
identi@@ 2446
nice 2447
wes@@ 2448
jen@@ 2449
wochen 2450
areas 2451
bot@@ 2452
potential 2453
offen@@ 2454
gelernt 2455
glück@@ 2456
sicht 2457
ning 2458
mate 2459
climate 2460
tical 2461
fli@@ 2462
stand@@ 2463
sehe 2464
bed 2465
gives 2466
modern 2467
rat@@ 2468
ör@@ 2469
größe 2470
zuerst 2471
histor@@ 2472
ched 2473
ss@@ 2474
luft 2475
manche 2476
fel 2477
non-@@ 2478
cam@@ 2479
cli@@ 2480
reihe 2481
sicherheit 2482
understanding 2483
yed 2484
sig@@ 2485
ham@@ 2486
law 2487
ama@@ 2488
ca 2489
nei@@ 2490
tho@@ 2491
radi@@ 2492
wand 2493
möchten 2494
teten 2495
sorgen 2496
ss 2497
uren 2498
heiten 2499
attention 2500
discovered 2501
hen@@ 2502
bewusst 2503
beru@@ 2504
scheint 2505
head@@ 2506
est@@ 2507
enz 2508
strei@@ 2509
fied 2510
short 2511
refle@@ 2512
impro@@ 2513
ze@@ 2514
aussehen 2515
beginnt 2516
pping 2517
cars 2518
speak 2519
mus@@ 2520
literally 2521
las@@ 2522
herr@@ 2523
bereit 2524
pul@@ 2525
moral 2526
swe@@ 2527
ths 2528
links 2529
leben@@ 2530
unseres 2531
erklären 2532
flug@@ 2533
ffe 2534
investi@@ 2535
lang@@ 2536
morgen 2537
bist 2538
zeug 2539
funktionieren 2540
forms 2541
general 2542
seems 2543
cat@@ 2544
zo@@ 2545
miteinander 2546
inv@@ 2547
challenge 2548
deep 2549
numbers 2550
playing 2551
pun@@ 2552
egal 2553
aufgabe 2554
systeme 2555
arbeitet 2556
produce 2557
musi@@ 2558
tun@@ 2559
gewal@@ 2560
schritt 2561
hervor@@ 2562
studenten 2563
gewesen 2564
map 2565
proje@@ 2566
bran@@ 2567
vel@@ 2568
ppen 2569
amerika 2570
flü@@ 2571
fully 2572
ical 2573
realize 2574
average 2575
sol@@ 2576
she@@ 2577
mars 2578
erzählt 2579
anzahl 2580
main 2581
ese 2582
access 2583
ently 2584
diagno@@ 2585
bli@@ 2586
16 2587
gs@@ 2588
computer@@ 2589
program@@ 2590
sing@@ 2591
sli@@ 2592
girls 2593
anstatt 2594
daraus 2595
aufzu@@ 2596
nachdenken 2597
tatsache 2598
changing 2599
ented 2600
computers 2601
dr. 2602
died 2603
brachte 2604
denkt 2605
mache 2606
cket 2607
uses 2608
fun@@ 2609
oren 2610
acht 2611
anfangen 2612
geworden 2613
nten 2614
prä@@ 2615
north 2616
auth@@ 2617
absolutely 2618
passieren 2619
bekannt 2620
karte 2621
stimmt 2622
bottom 2623
physical 2624
ley 2625
ement 2626
digital 2627
mm 2628
niemals 2629
movement 2630
running 2631
klein@@ 2632
gerät 2633
gruppen 2634
cop@@ 2635
plat@@ 2636
hel@@ 2637
lat@@ 2638
mat@@ 2639
demon@@ 2640
english 2641
jemals 2642
verwendet 2643
infe@@ 2644
hundreds 2645
developing 2646
materials 2647
ad 2648
shape 2649
ology 2650
alone 2651
glob@@ 2652
traum 2653
individual 2654
deli@@ 2655
dru@@ 2656
ige 2657
nacht 2658
firma 2659
vent@@ 2660
aff@@ 2661
steu@@ 2662
spricht 2663
millions 2664
creating 2665
result 2666
student 2667
bevölkerung 2668
jahrhundert 2669
gesicht 2670
nobody 2671
lin 2672
log@@ 2673
dem@@ 2674
hier@@ 2675
000 2676
vorstellung 2677
genannt 2678
development 2679
chris 2680
chi@@ 2681
innen 2682
messen 2683
quality 2684
analy@@ 2685
mensch 2686
gende 2687
preis 2688
bücher 2689
tic@@ 2690
interessan@@ 2691
schwierig 2692
folgen 2693
straße 2694
tö@@ 2695
ore 2696
eigen@@ 2697
gesundheit 2698
kleines 2699
liegen 2700
wäl@@ 2701
zeige 2702
town 2703
london 2704
recently 2705
medical 2706
bekommt 2707
gingen 2708
elektr@@ 2709
wahl 2710
spo@@ 2711
solution 2712
compassion 2713
zentr@@ 2714
mental 2715
listen 2716
mot@@ 2717
product 2718
afghanistan 2719
haupt@@ 2720
beide 2721
wish 2722
focus 2723
kinder@@ 2724
billi@@ 2725
300 2726
chinese 2727
gebiet 2728
größten 2729
ständig 2730
tor 2731
designed 2732
argu@@ 2733
clu@@ 2734
bru@@ 2735
gän@@ 2736
holen 2737
ßt 2738
0ern 2739
major 2740
connected 2741
tier 2742
wn 2743
showed 2744
essen@@ 2745
gezeigt 2746
scht 2747
krankheit 2748
relationship 2749
ed@@ 2750
emp@@ 2751
east 2752
cent 2753
kid 2754
mathemati@@ 2755
sonst 2756
ve@@ 2757
blood 2758
tel@@ 2759
tas@@ 2760
kel 2761
industry 2762
knows 2763
cro@@ 2764
sä@@ 2765
soziale 2766
umgebung 2767
tiny 2768
anybody 2769
hon@@ 2770
politik 2771
gefü@@ 2772
foto 2773
fir@@ 2774
ctions 2775
tics 2776
tal 2777
1,@@ 2778
eit 2779
aler 2780
schulen 2781
seem 2782
save 2783
haven 2784
obviously 2785
lea@@ 2786
dom@@ 2787
cin@@ 2788
dark 2789
tab@@ 2790
person@@ 2791
ball@@ 2792
wahrheit 2793
allein 2794
oberfläche 2795
talks 2796
moved 2797
zeiten 2798
benutzt 2799
park 2800
ingly 2801
dic@@ 2802
security 2803
send 2804
support 2805
soon 2806
schrieb 2807
herz@@ 2808
kontrolle 2809
stimme 2810
class 2811
techni@@ 2812
likely 2813
talked 2814
ente 2815
tzt 2816
dungen 2817
öl@@ 2818
tex@@ 2819
issue 2820
stark 2821
versuche 2822
pflanzen 2823
verbunden 2824
fehl@@ 2825
begin 2826
ute 2827
incredibly 2828
seiten 2829
städte 2830
spiele 2831
network 2832
especially 2833
allow 2834
ast 2835
available 2836
human@@ 2837
happiness 2838
type 2839
sicher@@ 2840
jemanden 2841
proz@@ 2842
für@@ 2843
schlecht 2844
richtige 2845
taten 2846
writing 2847
ander@@ 2848
rolle 2849
sonnen@@ 2850
bilden 2851
cles 2852
wil@@ 2853
tier@@ 2854
kleiner 2855
leicht 2856
zieren 2857
regeln 2858
geschrieben 2859
werte 2860
becomes 2861
xi@@ 2862
ared 2863
vie@@ 2864
multi@@ 2865
aids 2866
sozi@@ 2867
solve 2868
ining 2869
impact 2870
les@@ 2871
effect 2872
beyond 2873
ff 2874
entfernt 2875
tät 2876
wä@@ 2877
hälfte 2878
lived 2879
present 2880
wat@@ 2881
stu@@ 2882
dete@@ 2883
games 2884
laden 2885
betra@@ 2886
meinung 2887
onto 2888
action 2889
mass 2890
training 2891
high-@@ 2892
perfect 2893
hi 2894
lebt 2895
satz 2896
bedeutung 2897
schaut 2898
office 2899
ession 2900
continu@@ 2901
explain 2902
smo@@ 2903
ass 2904
liter@@ 2905
app@@ 2906
cou@@ 2907
mitte 2908
ähn@@ 2909
pil@@ 2910
dead 2911
hour 2912
worth 2913
hil@@ 2914
gele@@ 2915
ingen 2916
veränderung 2917
operation 2918
bigger 2919
resources 2920
please 2921
einfache 2922
statt 2923
gegenüber 2924
guess 2925
appe@@ 2926
essi@@ 2927
zelle 2928
machten 2929
tausende 2930
chtet 2931
gesprochen 2932
depen@@ 2933
active 2934
richard 2935
blin@@ 2936
mein@@ 2937
schwier@@ 2938
fähigkeiten 2939
hält 2940
verste@@ 2941
ismus 2942
genen 2943
scientific 2944
gal@@ 2945
reasons 2946
gue 2947
international 2948
dig@@ 2949
hoffe 2950
weisen 2951
biolog@@ 2952
drive 2953
not@@ 2954
strong 2955
europe 2956
sus@@ 2957
industri@@ 2958
ras@@ 2959
ei 2960
gesam@@ 2961
mögen 2962
erreicht 2963
ren 2964
fear 2965
groups 2966
western 2967
device 2968
tel 2969
zeich@@ 2970
sonne 2971
schei@@ 2972
thi@@ 2973
lines 2974
ans@@ 2975
geboren 2976
finde 2977
tells 2978
putting 2979
basis 2980
kle@@ 2981
zimmer 2982
freund 2983
lab@@ 2984
sm@@ 2985
solar 2986
14 2987
verb@@ 2988
mä@@ 2989
boy 2990
197@@ 2991
website 2992
finger 2993
leu@@ 2994
mehr@@ 2995
programm 2996
gekommen 2997
interessiert 2998
rules 2999
rein@@ 3000
algorith@@ 3001
schools 3002
eless 3003
dou@@ 3004
ank@@ 3005
schwer@@ 3006
med 3007
sun@@ 3008
glo@@ 3009
meet 3010
color 3011
teach 3012
nis@@ 3013
spro@@ 3014
studie 3015
ot 3016
nation 3017
special 3018
bewegt 3019
abzu@@ 3020
erfolg 3021
stellung 3022
hop@@ 3023
plant 3024
voice 3025
vereinigten 3026
beziehung 3027
schließen 3028
wann 3029
teilt 3030
ced 3031
bill 3032
komplett 3033
verloren 3034
hun@@ 3035
roll@@ 3036
ye@@ 3037
sions 3038
ble@@ 3039
bab@@ 3040
vier@@ 3041
schie@@ 3042
absolut 3043
ansehen 3044
bekam 3045
similar 3046
pictures 3047
liber@@ 3048
ise 3049
heutzutage 3050
ak 3051
road 3052
several 3053
village 3054
towards 3055
extra@@ 3056
ang 3057
kam@@ 3058
wär@@ 3059
lä@@ 3060
gesetzt 3061
fehler 3062
tungen 3063
einzelne 3064
befinden 3065
ignor@@ 3066
geri@@ 3067
zw@@ 3068
öl 3069
issues 3070
door 3071
speed 3072
projects 3073
involved 3074
teachers 3075
dynam@@ 3076
aller@@ 3077
tan 3078
klu@@ 3079
gesundheits@@ 3080
ebene 3081
activity 3082
eye 3083
ktion 3084
offensichtlich 3085
liert 3086
dachten 3087
mäch@@ 3088
sionen 3089
pfen 3090
ina 3091
sent 3092
particularly 3093
list 3094
mes@@ 3095
stam@@ 3096
pli@@ 3097
new@@ 3098
break 3099
risk 3100
tod 3101
lieren 3102
mö@@ 3103
gesamte 3104
leg@@ 3105
suddenly 3106
eng@@ 3107
$ 3108
econom@@ 3109
asking 3110
indeed 3111
back@@ 3112
kil@@ 3113
male 3114
bald 3115
herausforderung 3116
sofort 3117
voller 3118
komme 3119
gol@@ 3120
ach 3121
robot 3122
hle 3123
port@@ 3124
herauszufinden 3125
geschieht 3126
dest 3127
rus@@ 3128
cla@@ 3129
arb@@ 3130
basic 3131
on-@@ 3132
ober@@ 3133
krankheiten 3134
nennt 3135
stellten 3136
nisse 3137
trotzdem 3138
mic 3139
foot@@ 3140
bet@@ 3141
star 3142
ähnlich 3143
normalerweise 3144
deten 3145
langen 3146
wachstum 3147
schnitt 3148
mitgefühl 3149
cle@@ 3150
lon@@ 3151
esti@@ 3152
nine 3153
symme@@ 3154
sounds 3155
kla@@ 3156
glichen 3157
wieso 3158
sahen 3159
ped 3160
resi@@ 3161
dy@@ 3162
hit 3163
ures 3164
evidence 3165
carbon 3166
schau@@ 3167
gearbeitet 3168
linie 3169
wichtige 3170
ny 3171
hundred 3172
certainly 3173
page 3174
truth 3175
musli@@ 3176
hoffnung 3177
kannst 3178
form@@ 3179
smart 3180
teri@@ 3181
respe@@ 3182
message 3183
fä@@ 3184
überrasch@@ 3185
er-@@ 3186
sl@@ 3187
demo@@ 3188
fig@@ 3189
tagen 3190
object 3191
starts 3192
ching 3193
hau@@ 3194
spe@@ 3195
13 3196
virtu@@ 3197
mc@@ 3198
formed 3199
nutz@@ 3200
sprach 3201
mieren 3202
stay 3203
choice 3204
recor@@ 3205
wait 3206
sand 3207
hung 3208
europa 3209
schein@@ 3210
möglichen 3211
stimmen 3212
ators 3213
fine 3214
anyway 3215
explo@@ 3216
trau@@ 3217
mini@@ 3218
mei@@ 3219
ergebnis 3220
stische 3221
igen 3222
halte 3223
grenzen 3224
month 3225
wants 3226
grand@@ 3227
exi@@ 3228
ray 3229
ward 3230
künstler 3231
passen 3232
gewinnen 3233
hospital 3234
sell 3235
cations 3236
pol@@ 3237
beri@@ 3238
exc@@ 3239
walking 3240
desig@@ 3241
führte 3242
bewusstsein 3243
row 3244
ots 3245
matic 3246
brea@@ 3247
everywhere 3248
halt 3249
our@@ 3250
dec@@ 3251
q@@ 3252
peace 3253
gas@@ 3254
temp@@ 3255
ordnung 3256
cen@@ 3257
energi@@ 3258
kunst@@ 3259
verl@@ 3260
unge@@ 3261
sitzen 3262
entscheidungen 3263
examples 3264
plants 3265
24 3266
edi@@ 3267
ra 3268
ral 3269
fire 3270
iran 3271
kö@@ 3272
eben 3273
wesen 3274
ehr@@ 3275
journ@@ 3276
japan 3277
ligh@@ 3278
mul@@ 3279
ature 3280
cha@@ 3281
mark 3282
ath@@ 3283
fassen 3284
läuft 3285
reach 3286
zero 3287
dd@@ 3288
hän@@ 3289
umwelt@@ 3290
anschauen 3291
tlich 3292
pain@@ 3293
showing 3294
rela@@ 3295
tin 3296
15@@ 3297
interest 3298
ket@@ 3299
besu@@ 3300
fälle 3301
gleichzeitig 3302
skin 3303
store 3304
ready 3305
down@@ 3306
partner 3307
loo@@ 3308
exciting 3309
further 3310
spa@@ 3311
medicine 3312
wie@@ 3313
pattern 3314
techn@@ 3315
vergessen 3316
zentrum 3317
weltweit 3318
hört 3319
herum@@ 3320
ration 3321
notice 3322
total 3323
tou@@ 3324
ases 3325
hä@@ 3326
hielt 3327
folge 3328
kapit@@ 3329
alte 3330
professor 3331
self 3332
al-@@ 3333
fte 3334
zeichnet 3335
tigt 3336
funktion@@ 3337
länger 3338
wichtiger 3339
sozialen 3340
bedeu@@ 3341
monaten 3342
bestimmten 3343
san 3344
ines 3345
journey 3346
milli@@ 3347
democracy 3348
plasti@@ 3349
klas@@ 3350
größer 3351
orte 3352
sieren 3353
rise 3354
inn@@ 3355
develop 3356
ow@@ 3357
totally 3358
add 3359
ably 3360
nuclear 3361
service 3362
lagen 3363
treiben 3364
beobachten 3365
realität 3366
gedacht 3367
nachhal@@ 3368
biggest 3369
shu@@ 3370
ants 3371
extraordinary 3372
measure 3373
bedro@@ 3374
sit 3375
foot 3376
follow 3377
rede 3378
stern 3379
begannen 3380
übrigens 3381
einzelnen 3382
effizi@@ 3383
grew 3384
x-@@ 3385
frequ@@ 3386
named 3387
sou@@ 3388
klei@@ 3389
orten 3390
sobald 3391
spei@@ 3392
daten@@ 3393
ast@@ 3394
imm@@ 3395
val@@ 3396
ear@@ 3397
period 3398
ony 3399
großer 3400
produkt 3401
punkte 3402
gutes 3403
teacher 3404
ming 3405
repor@@ 3406
los@@ 3407
sky 3408
stell@@ 3409
feld 3410
schl@@ 3411
merk@@ 3412
netz@@ 3413
gewöhn@@ 3414
ließ 3415
richtigen 3416
greifen 3417
ended 3418
among 3419
196@@ 3420
mod@@ 3421
400 3422
ences 3423
lead 3424
wards 3425
enor@@ 3426
fische 3427
aufmerksamkeit 3428
besit@@ 3429
firmen 3430
ferti@@ 3431
pick 3432
non@@ 3433
wan@@ 3434
sper@@ 3435
druck 3436
stoffe 3437
gemeinsam 3438
abge@@ 3439
deine 3440
erd@@ 3441
schneller 3442
ationen 3443
st-@@ 3444
sh 3445
cru@@ 3446
organization 3447
poverty 3448
ank 3449
band 3450
schn@@ 3451
hab 3452
überleben 3453
trä@@ 3454
denk@@ 3455
gaben 3456
staat@@ 3457
passierte 3458
verlieren 3459
zier@@ 3460
eventually 3461
ops 3462
ages 3463
buildings 3464
ctive 3465
comp@@ 3466
dance 3467
ik 3468
lle 3469
hl 3470
großes 3471
ären 3472
bessere 3473
außer 3474
änder@@ 3475
bul@@ 3476
fron@@ 3477
nation@@ 3478
definition 3479
redu@@ 3480
quad@@ 3481
wert@@ 3482
spaß 3483
medien 3484
points 3485
posed 3486
standing 3487
cultural 3488
visual 3489
ll 3490
fisch 3491
tzung 3492
produzieren 3493
bleibt 3494
kultur@@ 3495
volle 3496
vorher 3497
halb 3498
acc@@ 3499
camera 3500
obser@@ 3501
largest 3502
inst@@ 3503
extremely 3504
cause 3505
except 3506
arab@@ 3507
pit@@ 3508
wander@@ 3509
beispiele 3510
stän@@ 3511
langsam 3512
approach 3513
success 3514
alized 3515
videos 3516
stars 3517
ingenie@@ 3518
arbeits@@ 3519
sammeln 3520
usually 3521
essentially 3522
watching 3523
rich 3524
strom 3525
bele@@ 3526
tem 3527
umwelt 3528
nachzudenken 3529
medizin 3530
demokratie 3531
aspe@@ 3532
products 3533
creative 3534
peri@@ 3535
berg 3536
perfe@@ 3537
klein 3538
drücken 3539
zumindest 3540
außerdem 3541
schaften 3542
sprachen 3543
shot 3544
qui@@ 3545
aging 3546
text 3547
ian 3548
objects 3549
continue 3550
song 3551
rich@@ 3552
lied 3553
nen@@ 3554
arbeitete 3555
interessante 3556
industrie 3557
zeichnen 3558
berech@@ 3559
nete 3560
versuchte 3561
wussten 3562
tically 3563
island 3564
power@@ 3565
cies 3566
lli@@ 3567
older 3568
sym@@ 3569
eig@@ 3570
reich 3571
winzi@@ 3572
ierte 3573
einfluss 3574
bö@@ 3575
amerikanischen 3576
stei@@ 3577
series 3578
instru@@ 3579
j 3580
to-@@ 3581
spread 3582
trees 3583
results 3584
massive 3585
cover 3586
wow 3587
sten@@ 3588
chines@@ 3589
geschehen 3590
bestimmt 3591
verstanden 3592
schlagen 3593
cl@@ 3594
wed 3595
17 3596
electricity 3597
one-@@ 3598
ish 3599
us-@@ 3600
trag@@ 3601
entdecken 3602
nachrichten 3603
arbei@@ 3604
schrei@@ 3605
verbessern 3606
chtung 3607
paul 3608
washington 3609
individu@@ 3610
screen 3611
models 3612
cian 3613
win 3614
electr@@ 3615
safe 3616
hom@@ 3617
innova@@ 3618
mensch@@ 3619
ologen 3620
stisch 3621
spezies 3622
sichti@@ 3623
zweiten 3624
wün@@ 3625
gewalt 3626
sowohl 3627
bus@@ 3628
facebook 3629
somewhere 3630
main@@ 3631
dad 3632
intervie@@ 3633
serious 3634
co2 3635
kab@@ 3636
kno@@ 3637
roman@@ 3638
phy@@ 3639
haut 3640
schöne 3641
klasse 3642
studien 3643
tly 3644
hing 3645
brains 3646
hit@@ 3647
fei@@ 3648
prei@@ 3649
dadurch 3650
fällt 3651
ght 3652
touch 3653
mom 3654
square 3655
nar@@ 3656
minds 3657
kn@@ 3658
wu@@ 3659
ffen 3660
liste 3661
gegangen 3662
zogen 3663
vorher@@ 3664
krie@@ 3665
llt 3666
vertrauen 3667
diejenigen 3668
poin@@ 3669
shi@@ 3670
studies 3671
tree 3672
impossible 3673
movie 3674
za@@ 3675
tiger 3676
bühne 3677
mathematik 3678
zugang 3679
flow 3680
somehow 3681
leaders 3682
conver@@ 3683
expect 3684
doctor 3685
1.@@ 3686
kä@@ 3687
erinn@@ 3688
prinzip 3689
methode 3690
fein@@ 3691
tik 3692
attra@@ 3693
faces 3694
clin@@ 3695
vation 3696
tam@@ 3697
audi@@ 3698
babies 3699
grad 3700
organisation 3701
brauch 3702
äumen 3703
ckte 3704
amerikaner 3705
erzeugen 3706
slo@@ 3707
quar@@ 3708
geist 3709
tv 3710
din@@ 3711
crazy 3712
rel@@ 3713
toll 3714
personen 3715
verlassen 3716
esen 3717
führung 3718
african 3719
wife 3720
ands 3721
expensive 3722
larger 3723
higher 3724
thousand 3725
scher 3726
lern@@ 3727
0er 3728
menschheit 3729
sar@@ 3730
rop@@ 3731
thre@@ 3732
private 3733
meaning 3734
tool 3735
jun@@ 3736
charles 3737
nam@@ 3738
killed 3739
frei 3740
reich@@ 3741
dige 3742
zü@@ 3743
zunehmen 3744
erlaubt 3745
gesi@@ 3746
site 3747
dur@@ 3748
sorts 3749
trust 3750
shown 3751
dent 3752
unt 3753
dorf 3754
omen 3755
schli@@ 3756
nenne 3757
stä@@ 3758
richten 3759
zeichen 3760
rechte 3761
allowed 3762
architecture 3763
domin@@ 3764
pieces 3765
kra@@ 3766
pers 3767
farbe 3768
spielt 3769
stet 3770
organisi@@ 3771
gewis@@ 3772
gründe 3773
schlag 3774
verständnis 3775
werk 3776
spar@@ 3777
above 3778
bun@@ 3779
hole 3780
reading 3781
finding 3782
thes@@ 3783
blind 3784
kämpfen 3785
gewicht 3786
erwar@@ 3787
handelt 3788
vergangenheit 3789
hörte 3790
nachricht 3791
station 3792
biology 3793
tom@@ 3794
conditions 3795
ful@@ 3796
including 3797
written 3798
45 3799
gos 3800
iger 3801
herstellen 3802
früher 3803
schicken 3804
köni@@ 3805
upon 3806
engineering 3807
swi@@ 3808
beauty 3809
reali@@ 3810
provi@@ 3811
sexu@@ 3812
fundamental 3813
israel 3814
therefore 3815
wirklichkeit 3816
zustand 3817
neben@@ 3818
versuch 3819
hundert 3820
konzept 3821
genes 3822
tom 3823
k-@@ 3824
oli@@ 3825
ack@@ 3826
crisis 3827
ordin@@ 3828
kern 3829
traditional 3830
content 3831
stieg 3832
sekunden 3833
hinaus 3834
aussieht 3835
dreht 3836
warten 3837
production 3838
connect 3839
tively 3840
web@@ 3841
stration 3842
dream 3843
income 3844
ered 3845
excited 3846
tar@@ 3847
satelli@@ 3848
west@@ 3849
tele@@ 3850
red@@ 3851
trieben 3852
schüler 3853
elte 3854
artikel 3855
universität 3856
papier 3857
theater 3858
200@@ 3859
press 3860
individuals 3861
transpar@@ 3862
brau@@ 3863
brei@@ 3864
großartige 3865
künst@@ 3866
erle@@ 3867
irgendwo 3868
schreck@@ 3869
typ 3870
frieden 3871
pflan@@ 3872
worte 3873
bacteria 3874
f-@@ 3875
exp@@ 3876
goal 3877
cep@@ 3878
supposed 3879
taught 3880
hot 3881
abstra@@ 3882
illu@@ 3883
has@@ 3884
chti@@ 3885
hrt 3886
erhö@@ 3887
» 3888
geschwindigkeit 3889
suche 3890
wör@@ 3891
globalen 3892
wissenschaft@@ 3893
complicated 3894
shor@@ 3895
cent@@ 3896
ically 3897
lies 3898
organ@@ 3899
truly 3900
perspective 3901
dor@@ 3902
freedom 3903
schen@@ 3904
öff@@ 3905
tigkeit 3906
familien 3907
endlich 3908
frü@@ 3909
schaff@@ 3910
arzt 3911
fotos 3912
communities 3913
families 3914
bus 3915
12@@ 3916
drug 3917
treatment 3918
central 3919
drugs 3920
ney 3921
dun@@ 3922
zin@@ 3923
kul@@ 3924
tere 3925
produkte 3926
terri@@ 3927
ods 3928
famous 3929
optimi@@ 3930
violence 3931
dn@@ 3932
entweder 3933
handeln 3934
werfen 3935
wissen@@ 3936
freiheit 3937
bodies 3938
healthy 3939
rou@@ 3940
combin@@ 3941
favorite 3942
struc@@ 3943
seconds 3944
faster 3945
england 3946
got@@ 3947
rat 3948
monat 3949
tungs@@ 3950
sinne 3951
stör@@ 3952
materialien 3953
verbinden 3954
« 3955
geni@@ 3956
fantastic 3957
transpor@@ 3958
hypo@@ 3959
oc@@ 3960
folgt 3961
neben 3962
behaup@@ 3963
geh@@ 3964
steigen 3965
kranken@@ 3966
behandlung 3967
wählen 3968
einzel@@ 3969
humanity 3970
natur@@ 3971
ends 3972
ly@@ 3973
tent 3974
party 3975
role 3976
fight 3977
gor@@ 3978
kill 3979
le-@@ 3980
kt@@ 3981
politi@@ 3982
haft 3983
kontin@@ 3984
zahl@@ 3985
öffnen 3986
chirur@@ 3987
unmöglich 3988
armut 3989
alive 3990
well-@@ 3991
math 3992
mess@@ 3993
zz@@ 3994
bing 3995
typ@@ 3996
neurons 3997
lands 3998
stem 3999
2000 4000
welcher 4001
ursprün@@ 4002
grö@@ 4003
niedri@@ 4004
antworten 4005
himself 4006
ners 4007
christ@@ 4008
di 4009
ogra@@ 4010
ils 4011
obje@@ 4012
mme 4013
sam 4014
chern 4015
hilft 4016
werk@@ 4017
gründen 4018
qualität 4019
maschinen 4020
größ@@ 4021
kohlen@@ 4022
minister 4023
original 4024
response 4025
reser@@ 4026
details 4027
mur@@ 4028
hea@@ 4029
35 4030
repli@@ 4031
kel@@ 4032
lauf@@ 4033
zieht 4034
bildet 4035
geschäft 4036
kommen@@ 4037
aufgrund 4038
interesse 4039
lern 4040
logi@@ 4041
ade 4042
ries 4043
repres@@ 4044
date 4045
worse 4046
lief 4047
tens 4048
path@@ 4049
conven@@ 4050
meer 4051
sohn 4052
gefähr@@ 4053
osten 4054
entdeckt 4055
krea@@ 4056
netz 4057
lü@@ 4058
verwen@@ 4059
riesige 4060
nummer 4061
dge 4062
zation 4063
cases 4064
successful 4065
balance 4066
radio 4067
meant 4068
fy 4069
throughout 4070
apo@@ 4071
range 4072
heli@@ 4073
fund@@ 4074
bit@@ 4075
compu@@ 4076
schwe@@ 4077
ozean 4078
faszinier@@ 4079
erzähl@@ 4080
re-@@ 4081
although 4082
skills 4083
tain 4084
exper@@ 4085
van@@ 4086
myster@@ 4087
einstein 4088
ima@@ 4089
genome 4090
masse 4091
fern@@ 4092
betrachtet 4093
ergebnisse 4094
dasselbe 4095
glich 4096
rechts 4097
price 4098
inclu@@ 4099
bunch 4100
150 4101
17@@ 4102
see@@ 4103
phones 4104
pain 4105
machines 4106
meeting 4107
glass 4108
reg@@ 4109
aid 4110
ehe@@ 4111
trägt 4112
ebenso 4113
forsch@@ 4114
chts@@ 4115
stunde 4116
gewinn@@ 4117
michael 4118
mani@@ 4119
fair 4120
insi@@ 4121
ran 4122
rele@@ 4123
hyper@@ 4124
gh 4125
ium 4126
physics 4127
fur@@ 4128
einfachen 4129
objekt 4130
dritte 4131
drehen 4132
läu@@ 4133
leisten 4134
frem@@ 4135
spek@@ 4136
keln 4137
acy 4138
dist@@ 4139
part@@ 4140
visi@@ 4141
kept 4142
ash 4143
lege 4144
respon@@ 4145
was@@ 4146
dam@@ 4147
bis@@ 4148
mach@@ 4149
dischen 4150
umzu@@ 4151
ermöglicht 4152
außergewöhn@@ 4153
entschieden 4154
passt 4155
heben 4156
neun 4157
publi@@ 4158
three-@@ 4159
skelet@@ 4160
enter 4161
earlier 4162
philosop@@ 4163
military 4164
gotten 4165
fore@@ 4166
rights 4167
stes 4168
policy 4169
wonder 4170
mau@@ 4171
bieten 4172
bestimmte 4173
alität 4174
kompli@@ 4175
clearly 4176
strange 4177
tivity 4178
after@@ 4179
actual 4180
beings 4181
vic@@ 4182
high@@ 4183
video@@ 4184
arbeite 4185
kamera 4186
antwor@@ 4187
früh@@ 4188
erklärt 4189
verletz@@ 4190
himmel 4191
era 4192
smaller 4193
cycle 4194
patterns 4195
ty@@ 4196
recognize 4197
progress 4198
hydro@@ 4199
grade 4200
concept 4201
context 4202
signal 4203
uss 4204
rä@@ 4205
legt 4206
haf@@ 4207
fasst 4208
samen 4209
raum@@ 4210
vely 4211
slow 4212
americans 4213
unded 4214
diver@@ 4215
wur@@ 4216
mals 4217
eigent@@ 4218
herz 4219
ier@@ 4220
nahrung 4221
solchen 4222
druck@@ 4223
reichen 4224
näher 4225
schafft 4226
energie@@ 4227
armen 4228
gü@@ 4229
zeigte 4230
ereig@@ 4231
samm@@ 4232
consi@@ 4233
familiar 4234
waste 4235
print 4236
choose 4237
argument 4238
uns@@ 4239
spon@@ 4240
lie 4241
endes 4242
hne 4243
kollegen 4244
entscheiden 4245
unde 4246
wirk@@ 4247
trag 4248
effe@@ 4249
record 4250
thanks 4251
president 4252
bla@@ 4253
que 4254
weile 4255
meeres@@ 4256
spieler 4257
gefragt 4258
bung 4259
stischen 4260
medizin@@ 4261
projekte 4262
traf 4263
gelegenheit 4264
architektur 4265
gesamten 4266
verstand 4267
connection 4268
greater 4269
invented 4270
costs 4271
plastic 4272
depres@@ 4273
sensor@@ 4274
waiting 4275
consider 4276
values 4277
listening 4278
treat 4279
extra 4280
stein 4281
fluss 4282
matisch 4283
gesetz 4284
grei@@ 4285
interak@@ 4286
anywhere 4287
etc 4288
solutions 4289
dness 4290
ack 4291
loss 4292
allows 4293
standard 4294
trin@@ 4295
magic 4296
will@@ 4297
cir@@ 4298
james 4299
malaria 4300
chem@@ 4301
sinn@@ 4302
chung 4303
seh@@ 4304
lösungen 4305
geschäfts@@ 4306
beziehungen 4307
zeuge 4308
raten 4309
beginn 4310
ressourcen 4311
eis 4312
befindet 4313
fällen 4314
weight 4315
green@@ 4316
contribu@@ 4317
ph 4318
km 4319
kilometer 4320
licht@@ 4321
nä@@ 4322
ät 4323
kaum 4324
flüs@@ 4325
kunden 4326
außerhalb 4327
menschen@@ 4328
conser@@ 4329
tests 4330
rob@@ 4331
draw 4332
divi@@ 4333
islam@@ 4334
pen 4335
kauf@@ 4336
erin 4337
kampf 4338
untersuchen 4339
stü@@ 4340
raus 4341
wü@@ 4342
freund@@ 4343
maß@@ 4344
photograph@@ 4345
ited 4346
driving 4347
clean 4348
fs 4349
hum@@ 4350
graph@@ 4351
stro@@ 4352
600 4353
dan 4354
komplex@@ 4355
bakterien 4356
leistung 4357
herzustellen 4358
wirkung 4359
trifft 4360
landes 4361
provide 4362
emotional 4363
wood 4364
performance 4365
weren 4366
nur@@ 4367
related 4368
invol@@ 4369
wers 4370
film@@ 4371
forest 4372
surgery 4373
robots 4374
decisions 4375
99 4376
george 4377
ender 4378
bau 4379
erzählte 4380
zunächst 4381
naja 4382
dangerous 4383
phil@@ 4384
dog 4385
critical 4386
effective 4387
tumor 4388
thomas 4389
depression 4390
gras@@ 4391
cated 4392
intelligence 4393
train 4394
ror 4395
freu@@ 4396
sel 4397
sustainable 4398
del 4399
sich@@ 4400
llen 4401
jahr@@ 4402
hände 4403
straßen 4404
seines 4405
sches 4406
veran@@ 4407
worten 4408
schönheit 4409
ky 4410
ory 4411
boo@@ 4412
auff@@ 4413
september 4414
ember 4415
au 4416
sharing 4417
flying 4418
tren@@ 4419
hr 4420
zy@@ 4421
heim@@ 4422
gerä@@ 4423
zell@@ 4424
mier@@ 4425
geln 4426
pass 4427
feed 4428
protect 4429
artist 4430
walked 4431
travel 4432
two-@@ 4433
none 4434
wagen 4435
remarkable 4436
however 4437
ements 4438
aware 4439
teaching 4440
conference 4441
politics 4442
explor@@ 4443
boys 4444
2008 4445
fuel 4446
trade 4447
schwan@@ 4448
leider 4449
letz@@ 4450
dein 4451
fertig 4452
wirtschafts@@ 4453
bezug 4454
legs 4455
ambi@@ 4456
stick 4457
forming 4458
diversity 4459
anda 4460
ets 4461
whose 4462
informa@@ 4463
belo@@ 4464
verkaufen 4465
ttern 4466
bürger@@ 4467
stände 4468
schlechte 4469
hinzu@@ 4470
getroffen 4471
auswirkungen 4472
biologie 4473
lag 4474
foundation 4475
mobile 4476
inge 4477
current 4478
sum 4479
direction 4480
exist 4481
conversation 4482
scan@@ 4483
arts 4484
anymore 4485
prof@@ 4486
conc@@ 4487
ero@@ 4488
motor 4489
religi@@ 4490
nap@@ 4491
ep@@ 4492
rule 4493
ai@@ 4494
geschaffen 4495
auen 4496
geschlossen 4497
äre 4498
fähig 4499
gehirn@@ 4500
hör@@ 4501
bild@@ 4502
nicht-@@ 4503
clim@@ 4504
mile 4505
stream 4506
becoming 4507
gic 4508
sele@@ 4509
syste@@ 4510
wege 4511
sat@@ 4512
freude 4513
spitze 4514
ca. 4515
siert 4516
heit@@ 4517
herausfinden 4518
eigenschaften 4519
fläche 4520
einzigen 4521
hat@@ 4522
bits 4523
irs 4524
slide 4525
whe@@ 4526
scre@@ 4527
scientist 4528
ek 4529
entation 4530
stone 4531
tz 4532
uhr 4533
bisher 4534
unglaubliche 4535
leidenschaft 4536
kämp@@ 4537
aktu@@ 4538
organisationen 4539
gehirns 4540
prototyp@@ 4541
docum@@ 4542
ial 4543
understood 4544
som@@ 4545
nigeria 4546
brechen 4547
erfahren 4548
voraus@@ 4549
erstens 4550
bahn 4551
letztes 4552
extrem 4553
lations 4554
ghts 4555
block 4556
tech 4557
passion 4558
ing-@@ 4559
sla@@ 4560
jan@@ 4561
suff@@ 4562
sex@@ 4563
genetic 4564
practice 4565
protein 4566
frank@@ 4567
abend 4568
moral@@ 4569
schwar@@ 4570
wichtigste 4571
großartig 4572
dlichen 4573
deswegen 4574
werkzeuge 4575
flugzeug 4576
lower 4577
studio 4578
immediately 4579
thetic 4580
floor 4581
experiments 4582
pull 4583
robo@@ 4584
track 4585
ells 4586
specific 4587
ring 4588
subject 4589
cians 4590
hed 4591
mr. 4592
yer 4593
hoff@@ 4594
ktor 4595
steckt 4596
erneu@@ 4597
brü@@ 4598
finanzi@@ 4599
lernte 4600
glaub@@ 4601
geräte 4602
zeitpunkt 4603
in-@@ 4604
environmental 4605
increase 4606
ads 4607
greatest 4608
af@@ 4609
function 4610
held 4611
reach@@ 4612
services 4613
profi@@ 4614
frie@@ 4615
auge 4616
ehrlich 4617
rund 4618
dün@@ 4619
hunderte 4620
krankenhaus 4621
zie@@ 4622
chs@@ 4623
leiden 4624
konferenz 4625
enormous 4626
markets 4627
chemical 4628
encoura@@ 4629
scri@@ 4630
occu@@ 4631
pel 4632
offi@@ 4633
sand@@ 4634
heu@@ 4635
keiner 4636
retten 4637
fühlt 4638
reaktion 4639
ür@@ 4640
schutz 4641
bedingungen 4642
kraft@@ 4643
stau@@ 4644
decade 4645
bac@@ 4646
produced 4647
tradition 4648
co 4649
speaking 4650
sac@@ 4651
police 4652
cold 4653
shared 4654
ham 4655
poten@@ 4656
sorry 4657
networks 4658
ue 4659
schil@@ 4660
ever@@ 4661
va 4662
ann 4663
emotion@@ 4664
schluss 4665
erinnere 4666
führer 4667
chtes 4668
währ@@ 4669
typen 4670
ately 4671
sequence 4672
capit@@ 4673
photograph 4674
jer@@ 4675
conclu@@ 4676
vac@@ 4677
sung 4678
blas@@ 4679
mitten 4680
vollen 4681
spreche 4682
vielfalt 4683
benutz@@ 4684
schönen 4685
westen 4686
disappe@@ 4687
commit@@ 4688
urban 4689
atlan@@ 4690
some@@ 4691
raise 4692
univer@@ 4693
festi@@ 4694
195@@ 4695
thro@@ 4696
creativity 4697
regel@@ 4698
fuhr 4699
aufgaben 4700
erwarten 4701
säu@@ 4702
krise 4703
z.b. 4704
following 4705
assu@@ 4706
status 4707
ge-@@ 4708
rock 4709
gent@@ 4710
forth 4711
stun@@ 4712
chair 4713
kun@@ 4714
stattdessen 4715
bewe@@ 4716
inspiri@@ 4717
netzwerk 4718
luft@@ 4719
unterschiedliche 4720
statt@@ 4721
mehrere 4722
lasst 4723
mp 4724
matically 4725
nel 4726
tac@@ 4727
enter@@ 4728
alism 4729
ong 4730
cas@@ 4731
forget 4732
temperature 4733
lights 4734
complete 4735
fit 4736
television 4737
bat 4738
recogni@@ 4739
forces 4740
nes 4741
philosoph@@ 4742
unden 4743
veränderungen 4744
unterschiede 4745
erfü@@ 4746
sodass 4747
jün@@ 4748
vorzu@@ 4749
fern 4750
keits@@ 4751
survive 4752
various 4753
wikipedia 4754
n-@@ 4755
agree 4756
adop@@ 4757
organis@@ 4758
darwin 4759
comm@@ 4760
fanta@@ 4761
stär@@ 4762
schützen 4763
ebenfalls 4764
erfolgreich 4765
mente 4766
glei@@ 4767
wirken 4768
rechten 4769
gefä@@ 4770
beschrei@@ 4771
unfortunately 4772
near 4773
essed 4774
profit 4775
bly 4776
useful 4777
hes 4778
mr@@ 4779
nasa 4780
moder@@ 4781
inspired 4782
played 4783
tes@@ 4784
gesellschaften 4785
weite 4786
nahe 4787
grundle@@ 4788
ganzes 4789
nehme 4790
klima@@ 4791
globale 4792
mögliche 4793
sische 4794
angefangen 4795
strukturen 4796
summer 4797
unique 4798
surro@@ 4799
levels 4800
van 4801
amp 4802
birds 4803
sse 4804
geführt 4805
lieb@@ 4806
kün@@ 4807
zustellen 4808
maßen 4809
verrückt 4810
medikamente 4811
regierungen 4812
discover 4813
evolved 4814
final 4815
fundament@@ 4816
financial 4817
ahead 4818
classi@@ 4819
ep 4820
doctors 4821
path 4822
restaurant 4823
conflict 4824
prü@@ 4825
weib@@ 4826
solar@@ 4827
verbindungen 4828
chter@@ 4829
jahrzehn@@ 4830
rufen 4831
erfunden 4832
öffentlichen 4833
digung 4834
elektro@@ 4835
kostet 4836
bäume 4837
sprech@@ 4838
ahnung 4839
ruf 4840
verein@@ 4841
alisi@@ 4842
veröffent@@ 4843
bewer@@ 4844
bringing 4845
ana 4846
event 4847
pris@@ 4848
loved 4849
5,000 4850
possibly 4851
recent 4852
moon 4853
experim@@ 4854
union 4855
rever@@ 4856
sat 4857
fen@@ 4858
geru@@ 4859
trieb 4860
jahrhunderts 4861
bemerkens@@ 4862
physik 4863
soli@@ 4864
actions 4865
bren@@ 4866
plus 4867
helped 4868
0 4869
teams 4870
sle@@ 4871
negative 4872
element 4873
finan@@ 4874
deu@@ 4875
hinder@@ 4876
brenn@@ 4877
elles 4878
männ@@ 4879
pfer@@ 4880
produktion 4881
gehe 4882
konzentrieren 4883
zeu@@ 4884
leid 4885
jene 4886
miert 4887
gste 4888
höch@@ 4889
öffnet 4890
rü@@ 4891
karten 4892
types 4893
amer@@ 4894
pair 4895
sis 4896
alternative 4897
pher@@ 4898
phase 4899
band@@ 4900
indian 4901
funny 4902
societies 4903
tate 4904
fes@@ 4905
genom@@ 4906
consciousness 4907
steve 4908
chs 4909
jemandem 4910
schritte 4911
verantwortung 4912
büro 4913
schätzen 4914
directly 4915
jac@@ 4916
institutions 4917
tiv@@ 4918
shel@@ 4919
harvard 4920
mostly 4921
search 4922
ular 4923
effects 4924
john@@ 4925
gere@@ 4926
geschafft 4927
demokra@@ 4928
trei@@ 4929
guter 4930
unterstützen 4931
wichtigsten 4932
fabri@@ 4933
gender 4934
institute 4935
75 4936
instrument 4937
destro@@ 4938
mix@@ 4939
fres@@ 4940
note 4941
tran@@ 4942
ol 4943
apple 4944
agi@@ 4945
ozean@@ 4946
heutigen 4947
hinein 4948
dien@@ 4949
erwä@@ 4950
konsu@@ 4951
einzigarti@@ 4952
fragt 4953
herzen 4954
hängt 4955
tausend 4956
behandeln 4957
schlä@@ 4958
sign 4959
vin@@ 4960
extreme 4961
detail 4962
ple 4963
verk@@ 4964
öko@@ 4965
wohin 4966
dische 4967
entlich 4968
farben 4969
industrial 4970
graph 4971
california 4972
evol@@ 4973
francisco 4974
obvious 4975
heat 4976
exten@@ 4977
laptop 4978
ards 4979
sion@@ 4980
robert 4981
fran@@ 4982
alization 4983
terror@@ 4984
stecken 4985
nahme 4986
kosten@@ 4987
ärzte 4988
lebte 4989
tief 4990
eigenes 4991
englisch 4992
tür 4993
ruhi@@ 4994
career 4995
stance 4996
op 4997
sleep 4998
uring 4999
intui@@ 5000
institu@@ 5001
budget 5002
hero@@ 5003
below 5004
gie 5005
workers 5006
carto@@ 5007
hir@@ 5008
anz 5009
holt 5010
regel 5011
echte 5012
größeren 5013
erleben 5014
erungen 5015
schlu@@ 5016
nieder@@ 5017
nü@@ 5018
verwand@@ 5019
capital 5020
privi@@ 5021
ological 5022
year-old 5023
onic 5024
ams 5025
ba 5026
phi@@ 5027
ater 5028
glas@@ 5029
hig@@ 5030
elli@@ 5031
bitten 5032
ted-@@ 5033
alismus 5034
senden 5035
digt 5036
modelle 5037
zweitens 5038
beu@@ 5039
waffen 5040
gefühle 5041
afrikan@@ 5042
terrible 5043
work@@ 5044
challenges 5045
daughter 5046
wild 5047
by@@ 5048
focused 5049
trick 5050
intelligent 5051
vot@@ 5052
kern@@ 5053
twitter 5054
boot 5055
zur@@ 5056
ler@@ 5057
erzeugt 5058
wenden 5059
wenige 5060
frieden@@ 5061
fortun@@ 5062
ette 5063
winter 5064
bought 5065
biological 5066
term 5067
ancient 5068
circu@@ 5069
ii 5070
mond 5071
appar@@ 5072
governments 5073
anima@@ 5074
2007 5075
mand@@ 5076
echt 5077
tsch@@ 5078
geschah 5079
entscheiden@@ 5080
verbringen 5081
gewä@@ 5082
entfern@@ 5083
entwicklungs@@ 5084
sischen 5085
fuß@@ 5086
häuser 5087
task 5088
jam@@ 5089
ping 5090
rock@@ 5091
valley 5092
birth 5093
inspiration 5094
ased 5095
capacity 5096
agre@@ 5097
wee@@ 5098
explore 5099
popular 5100
mili@@ 5101
pic@@ 5102
laws 5103
stir@@ 5104
brot 5105
ließen 5106
oten 5107
wechsel@@ 5108
größere 5109
entscheidung 5110
schte 5111
gebe 5112
eating 5113
willing 5114
emer@@ 5115
decide 5116
farm 5117
spec@@ 5118
ah@@ 5119
val 5120
artists 5121
ameras 5122
wid@@ 5123
materi@@ 5124
dar 5125
dep@@ 5126
decision 5127
magne@@ 5128
rieben 5129
ände 5130
brauchte 5131
fängt 5132
unterneh@@ 5133
zieh@@ 5134
freunden 5135
erlauben 5136
erfahrungen 5137
sigkeit 5138
entschied 5139
fühlte 5140
wunsch 5141
fenster 5142
seien 5143
twice 5144
agen@@ 5145
paid 5146
alter@@ 5147
expected 5148
modi@@ 5149
inger 5150
frühen 5151
blut@@ 5152
einkommen 5153
folgendes 5154
träge 5155
alisierung 5156
wahl@@ 5157
proto@@ 5158
enga@@ 5159
character 5160
communication 5161
ologists 5162
instance 5163
race 5164
rain 5165
turning 5166
ink 5167
unbe@@ 5168
meters 5169
c. 5170
attac@@ 5171
chr@@ 5172
immer@@ 5173
causes 5174
islam 5175
designers 5176
kei@@ 5177
konzentri@@ 5178
zwan@@ 5179
gliche 5180
existiert 5181
barkeit 5182
fügen 5183
hunder@@ 5184
loch 5185
neuronen 5186
habt 5187
complexity 5188
dimensional 5189
imag@@ 5190
shir@@ 5191
sphere 5192
push 5193
yers 5194
infrastructure 5195
shed 5196
purpose 5197
dest@@ 5198
gold 5199
bir@@ 5200
10,000 5201
flu 5202
stock 5203
prob@@ 5204
pa 5205
mark@@ 5206
gst 5207
hot@@ 5208
fort 5209
gsten 5210
verfügung 5211
erstaunlich 5212
begonnen 5213
genutzt 5214
beeinflusst 5215
kommunikation 5216
greif@@ 5217
weiss 5218
achten 5219
vorbei 5220
carry 5221
link 5222
predic@@ 5223
anti-@@ 5224
straight 5225
break@@ 5226
enting 5227
worry 5228
spending 5229
plac@@ 5230
cros@@ 5231
efficient 5232
dying 5233
closer 5234
ami 5235
tag@@ 5236
ware 5237
trial 5238
chin@@ 5239
pressure 5240
erstes 5241
erstaun@@ 5242
staat 5243
berühm@@ 5244
struk@@ 5245
förder@@ 5246
selts@@ 5247
blau@@ 5248
reak@@ 5249
augen@@ 5250
nungen 5251
accu@@ 5252
promis@@ 5253
ef@@ 5254
cell@@ 5255
gran@@ 5256
slightly 5257
sa 5258
mountain 5259
00@@ 5260
quote 5261
secret 5262
alle@@ 5263
rema@@ 5264
schwi@@ 5265
küste 5266
runter 5267
prakti@@ 5268
ität 5269
produziert 5270
wirtschaft@@ 5271
nissen 5272
tritt 5273
blä@@ 5274
sicherlich 5275
sucht 5276
lauf 5277
molecules 5278
surprising 5279
ours 5280
flexi@@ 5281
drop 5282
subje@@ 5283
prize 5284
acade@@ 5285
river 5286
gate 5287
devices 5288
low-@@ 5289
bers 5290
instal@@ 5291
decades 5292
diseases 5293
charge 5294
sche@@ 5295
regu@@ 5296
üs@@ 5297
höhe 5298
losen 5299
amerikanische 5300
daß 5301
passi@@ 5302
leg 5303
sal 5304
vering 5305
address 5306
u.@@ 5307
gui@@ 5308
cortex 5309
youtube 5310
ency 5311
stal@@ 5312
spre@@ 5313
pon@@ 5314
gem 5315
astero@@ 5316
ine@@ 5317
puzz@@ 5318
16@@ 5319
universi@@ 5320
ji@@ 5321
recht@@ 5322
wörter 5323
modernen 5324
glaubt 5325
bildungs@@ 5326
nächstes 5327
einhalb 5328
lets 5329
broken 5330
citizens 5331
cate 5332
adap@@ 5333
que@@ 5334
brilliant 5335
feu@@ 5336
hart 5337
funk@@ 5338
ernst 5339
desto 5340
komplexität 5341
stücke 5342
tolle 5343
gelöst 5344
gewebe 5345
orien 5346
zusammenhang 5347
zeug@@ 5348
investieren 5349
dorthin 5350
innen@@ 5351
politischen 5352
hte 5353
nord@@ 5354
begeg@@ 5355
zug 5356
kreativität 5357
acting 5358
check 5359
garten 5360
quick 5361
drin@@ 5362
memory 5363
descri@@ 5364
manipu@@ 5365
bert 5366
inse@@ 5367
brie@@ 5368
connec@@ 5369
integri@@ 5370
sekunde 5371
ecke 5372
tochter 5373
schafts@@ 5374
infrastruktur 5375
erinnert 5376
besor@@ 5377
ökonom@@ 5378
schwester 5379
1,000 5380
significant 5381
ority 5382
magazine 5383
educ@@ 5384
degrees 5385
dence 5386
published 5387
tis@@ 5388
answers 5389
nat@@ 5390
trouble 5391
atmosphere 5392
archi@@ 5393
zone 5394
aro@@ 5395
coffee 5396
law@@ 5397
2010 5398
ech@@ 5399
ries@@ 5400
stie@@ 5401
baut 5402
wirst 5403
ungspro@@ 5404
beteili@@ 5405
politische 5406
verfolgen 5407
schrift 5408
fuß 5409
fernsehen 5410
persön@@ 5411
eding 5412
calls 5413
phili@@ 5414
tremendous 5415
cham@@ 5416
orche@@ 5417
chri@@ 5418
impli@@ 5419
predi@@ 5420
memor@@ 5421
pakistan 5422
zog 5423
linken 5424
schutz@@ 5425
fühl@@ 5426
fühle 5427
wach@@ 5428
schien 5429
entdeck@@ 5430
wuchs 5431
somit 5432
familien@@ 5433
nähe 5434
zierte 5435
freien 5436
hnt 5437
impf@@ 5438
weiterhin 5439
zehn@@ 5440
fäl@@ 5441
unsicht@@ 5442
tail 5443
gam@@ 5444
justice 5445
corpo@@ 5446
hur@@ 5447
rooms 5448
apart 5449
supply 5450
medium 5451
achie@@ 5452
ening 5453
miss@@ 5454
pati@@ 5455
wen 5456
reisen 5457
ansatz 5458
deutlich 5459
ausbildung 5460
ausdruck 5461
feuer 5462
einfach@@ 5463
teren 5464
botschaft 5465
passed 5466
ples 5467
conne@@ 5468
hearing 5469
dea@@ 5470
const@@ 5471
worst 5472
designs 5473
bridge 5474
profession@@ 5475
boston 5476
oxygen 5477
feedback 5478
stron@@ 5479
crimin@@ 5480
esses 5481
jon@@ 5482
stag 5483
gehalten 5484
baum 5485
nütz@@ 5486
effekt 5487
kontrollieren 5488
däch@@ 5489
affen 5490
pin@@ 5491
leads 5492
ear 5493
rational 5494
counter@@ 5495
creates 5496
speci@@ 5497
smar@@ 5498
assem@@ 5499
suppor@@ 5500
budd@@ 5501
edge 5502
interven@@ 5503
wissenschaftliche 5504
ermöglichen 5505
bruch 5506
zerstör@@ 5507
gebäu@@ 5508
stuhl 5509
sites 5510
notion 5511
collabor@@ 5512
ables 5513
gradu@@ 5514
technologi@@ 5515
communicate 5516
electric 5517
differences 5518
improve 5519
brown 5520
fying 5521
nations 5522
mming 5523
ologi@@ 5524
sely 5525
relevant 5526
structures 5527
tissue 5528
prot@@ 5529
engli@@ 5530
ungsk@@ 5531
verur@@ 5532
irgendwann 5533
dire@@ 5534
weiten 5535
ück@@ 5536
gelegt 5537
verursacht 5538
bildern 5539
bares 5540
gestal@@ 5541
materie 5542
kreu@@ 5543
riesigen 5544
töten 5545
werkzeug 5546
verrück@@ 5547
stances 5548
responsibility 5549
inno@@ 5550
organi@@ 5551
noticed 5552
travel@@ 5553
tory 5554
repe@@ 5555
flies 5556
trie@@ 5557
aut 5558
dok@@ 5559
toll@@ 5560
wald 5561
trotz 5562
haufen 5563
stolz 5564
tiver 5565
offen 5566
männern 5567
gewonnen 5568
benötigen 5569
erungs@@ 5570
quelle 5571
funktion 5572
allerdings 5573
universums 5574
besonder@@ 5575
treib@@ 5576
risiko 5577
wärts 5578
bestehen 5579
fix 5580
tle 5581
laun@@ 5582
accep@@ 5583
asia 5584
phenomenon 5585
vege@@ 5586
2005 5587
bird 5588
portra@@ 5589
hotel 5590
gend@@ 5591
tei@@ 5592
gemeinde 5593
fleisch 5594
natürliche 5595
problemen 5596
verkauft 5597
wächst 5598
tür@@ 5599
durchschnitt@@ 5600
erwartet 5601
aktivität 5602
arme 5603
dennoch 5604
begriff 5605
linien 5606
kriegen 5607
gesetze 5608
toler@@ 5609
organisms 5610
epide@@ 5611
dent@@ 5612
seemed 5613
de-@@ 5614
pus@@ 5615
farmers 5616
cious 5617
rt 5618
ate@@ 5619
haiti 5620
stige 5621
imagination 5622
insu@@ 5623
hall 5624
bot 5625
roten 5626
setzung 5627
grenze 5628
wiederum 5629
kenne 5630
reagieren 5631
nerven@@ 5632
einfacher 5633
massen@@ 5634
direc@@ 5635
willi@@ 5636
&apos;@@ 5637
limit@@ 5638
meas@@ 5639
inner 5640
helping 5641
easily 5642
pose 5643
paradig@@ 5644
british 5645
colleagues 5646
marketing 5647
entstehen 5648
vorberei@@ 5649
dagegen 5650
schaft@@ 5651
vorstell@@ 5652
kreis 5653
hoffentlich 5654
fotogra@@ 5655
filme 5656
benötigt 5657
sterne 5658
tivität 5659
bay 5660
plo@@ 5661
possibility 5662
feels 5663
corner 5664
stands 5665
thy 5666
invest@@ 5667
management 5668
studying 5669
religious 5670
programs 5671
opti@@ 5672
ists 5673
astronom@@ 5674
planets 5675
tially 5676
ford 5677
p-@@ 5678
anten@@ 5679
dimension@@ 5680
dopp@@ 5681
aufgenommen 5682
selber 5683
letztendlich 5684
sozusagen 5685
ingt 5686
erforschen 5687
verbesser@@ 5688
entwickelten 5689
aufnahme 5690
drü@@ 5691
gestalten 5692
shift 5693
oth 5694
nearly 5695
rhyth@@ 5696
necessarily 5697
mov@@ 5698
centi@@ 5699
flight 5700
deser@@ 5701
condition 5702
ought 5703
republi@@ 5704
blog 5705
consu@@ 5706
particles 5707
giant 5708
achieve 5709
fellow 5710
14@@ 5711
ins@@ 5712
interpre@@ 5713
motion 5714
cyber@@ 5715
las 5716
eis@@ 5717
rad 5718
klang 5719
äuß@@ 5720
städten 5721
möglicherweise 5722
objekte 5723
twi@@ 5724
communic@@ 5725
brand 5726
addi@@ 5727
window 5728
core 5729
wide 5730
organizations 5731
quali@@ 5732
tradi@@ 5733
scot@@ 5734
.com 5735
pounds 5736
post@@ 5737
painting 5738
partner@@ 5739
architec@@ 5740
defin@@ 5741
bo 5742
open-@@ 5743
ade@@ 5744
deut@@ 5745
ele 5746
standen 5747
behalten 5748
kehren 5749
wahrscheinlichkeit 5750
gebiete 5751
religiö@@ 5752
beschäftigt 5753
erfin@@ 5754
davor 5755
boat 5756
met@@ 5757
shop 5758
accoun@@ 5759
yl@@ 5760
return 5761
process@@ 5762
landscape 5763
defen@@ 5764
figured 5765
pump@@ 5766
yle 5767
plu@@ 5768
hair 5769
gur@@ 5770
mol@@ 5771
wom@@ 5772
regen@@ 5773
onie 5774
atur 5775
saß 5776
versorgung 5777
dauert 5778
entlang 5779
acht@@ 5780
klimawandel 5781
discovery 5782
iraq 5783
bush 5784
chicago 5785
alien 5786
ir 5787
knowing 5788
reduce 5789
engine 5790
streets 5791
bia 5792
throw 5793
rab@@ 5794
symbo@@ 5795
blog@@ 5796
civil 5797
wind@@ 5798
ela 5799
bone 5800
choices 5801
rand@@ 5802
beine 5803
ckten 5804
sparen 5805
forscher 5806
bürger 5807
nahrungs@@ 5808
zurückzu@@ 5809
jahres 5810
besser@@ 5811
jährigen 5812
einsatz 5813
klingt 5814
neighb@@ 5815
finished 5816
highly 5817
report 5818
net@@ 5819
21 5820
hunger 5821
lucky 5822
legal 5823
ar-@@ 5824
dom 5825
moments 5826
xes 5827
yn@@ 5828
schwei@@ 5829
obama 5830
mach 5831
stad@@ 5832
laut 5833
gelangen 5834
beschle@@ 5835
fortschritt 5836
verdienen 5837
perspektive 5838
atmosphäre 5839
vergleich 5840
coast 5841
nutri@@ 5842
fau@@ 5843
relationships 5844
thir@@ 5845
attemp@@ 5846
opportunities 5847
coo@@ 5848
resol@@ 5849
gressi@@ 5850
gress 5851
dents 5852
stopped 5853
allo@@ 5854
iled 5855
pollen 5856
necessary 5857
statisti@@ 5858
via 5859
lun@@ 5860
hn 5861
lok@@ 5862
fotografi@@ 5863
dieselbe 5864
plä@@ 5865
soldaten 5866
süd@@ 5867
produk@@ 5868
zuhause 5869
gedanke 5870
aktivi@@ 5871
finanz@@ 5872
gestern 5873
erstellen 5874
todes@@ 5875
einzi@@ 5876
selb@@ 5877
puts 5878
benefit 5879
prison 5880
rain@@ 5881
forever 5882
consum@@ 5883
paris 5884
yellow 5885
organic 5886
versus 5887
golf 5888
tee 5889
interact 5890
whi@@ 5891
2-@@ 5892
port 5893
fication 5894
g-@@ 5895
train@@ 5896
dop@@ 5897
moleküle 5898
vollständig 5899
schlag@@ 5900
herausgefunden 5901
fiel 5902
gelassen 5903
worüber 5904
ändert 5905
steuern 5906
aufre@@ 5907
intelligenz 5908
kräfte 5909
stress 5910
anth@@ 5911
eline 5912
teen@@ 5913
intensi@@ 5914
hell 5915
differently 5916
ya 5917
brief 5918
arian 5919
missing 5920
despite 5921
card 5922
fossi@@ 5923
exponenti@@ 5924
ury 5925
bie@@ 5926
hai 5927
geno@@ 5928
verdi@@ 5929
lautet 5930
sommer 5931
gewi@@ 5932
ücken 5933
schalten 5934
jährige 5935
setzte 5936
hirn@@ 5937
temperatur 5938
scheinen 5939
ernsthaf@@ 5940
großbritannien 5941
erleb@@ 5942
iges 5943
ering 5944
respect 5945
ultimately 5946
inti@@ 5947
transformation 5948
ior 5949
brings 5950
members 5951
engage 5952
foreign 5953
custom@@ 5954
lying 5955
bled 5956
rot 5957
obs@@ 5958
origin@@ 5959
noise 5960
stin 5961
iel 5962
defini@@ 5963
ti 5964
chaos 5965
zun@@ 5966
rö@@ 5967
organismen 5968
bewegungen 5969
kontrolli@@ 5970
vollkommen 5971
alisieren 5972
zukünf@@ 5973
experten 5974
kür@@ 5975
buchstäblich 5976
erfol@@ 5977
effort 5978
moves 5979
00 5980
cool@@ 5981
gli@@ 5982
instin@@ 5983
interface 5984
ily 5985
scen@@ 5986
russi@@ 5987
spor@@ 5988
bread 5989
cial 5990
oll@@ 5991
passionate 5992
attack 5993
rus 5994
arms 5995
ager 5996
strategi@@ 5997
cker@@ 5998
extre@@ 5999
ultra@@ 6000
ala 6001
themen 6002
komm@@ 6003
wesentlichen 6004
steigt 6005
verschie@@ 6006
zusammenarbeit 6007
kommunizieren 6008
kurzem 6009
untersu@@ 6010
lungen 6011
heili@@ 6012
teilchen 6013
darf 6014
fach@@ 6015
methoden 6016
steh@@ 6017
sitzt 6018
kombin@@ 6019
reve@@ 6020
zon 6021
monit@@ 6022
leading 6023
join 6024
gical 6025
colum@@ 6026
mathematics 6027
comfortable 6028
cloud 6029
stru@@ 6030
gon@@ 6031
surge@@ 6032
visit 6033
symptom@@ 6034
betr@@ 6035
kauft 6036
jungs 6037
äf@@ 6038
weiteren 6039
phänomen 6040
teste 6041
durchgeführt 6042
tauchen 6043
schlie@@ 6044
behandelt 6045
räume 6046
berü@@ 6047
gilt 6048
2009 6049
covered 6050
tial 6051
ght-@@ 6052
resul@@ 6053
virg@@ 6054
cide 6055
sculp@@ 6056
fairly 6057
tures 6058
elements 6059
2.@@ 6060
assi@@ 6061
lesson 6062
lic@@ 6063
benefits 6064
agriculture 6065
ania 6066
ili@@ 6067
emotions 6068
absolute 6069
dh 6070
hielten 6071
karriere 6072
meistens 6073
unterstützung 6074
fiziert 6075
präsident 6076
sogenan@@ 6077
besseren 6078
bezahlen 6079
entwerfen 6080
sozial@@ 6081
landschaft 6082
ologist 6083
base 6084
fix@@ 6085
heads 6086
electro@@ 6087
helps 6088
calcul@@ 6089
ens@@ 6090
antly 6091
fields 6092
engineers 6093
virtual 6094
tis 6095
tations 6096
-year-old 6097
ght@@ 6098
wisdom 6099
theore@@ 6100
fashion 6101
urs 6102
meister 6103
hinein@@ 6104
meilen 6105
wunderbare 6106
unbedingt 6107
wahre 6108
kontakt 6109
anwen@@ 6110
beeinflussen 6111
lichsten 6112
zus@@ 6113
konfli@@ 6114
load 6115
saving 6116
bility 6117
expla@@ 6118
introdu@@ 6119
emplo@@ 6120
bees 6121
suffering 6122
titude 6123
19 6124
cation 6125
walls 6126
ution 6127
happ@@ 6128
sahar@@ 6129
french 6130
nah 6131
contra@@ 6132
polio 6133
gras 6134
figu@@ 6135
peter 6136
u-@@ 6137
veröffentlicht 6138
besitzen 6139
entwickelte 6140
20. 6141
setz@@ 6142
kommuni@@ 6143
gefängnis 6144
kümmern 6145
stufe 6146
hohen 6147
landwirtschaft 6148
trauri@@ 6149
starb 6150
orienti@@ 6151
fragten 6152
erkrank@@ 6153
vermutlich 6154
spä@@ 6155
mom@@ 6156
spring 6157
wonder@@ 6158
expec@@ 6159
appreci@@ 6160
fold 6161
bling 6162
shares 6163
degree 6164
afford 6165
matters 6166
gy@@ 6167
ple@@ 6168
apply 6169
typical 6170
slowly 6171
lim@@ 6172
engineer 6173
motor@@ 6174
supp@@ 6175
ome 6176
fighting 6177
extin@@ 6178
hard@@ 6179
mouse 6180
afraid 6181
rief 6182
cle 6183
conscious 6184
vat@@ 6185
diplo@@ 6186
ski@@ 6187
stens 6188
ök@@ 6189
derzeit 6190
klin@@ 6191
zufällig 6192
ziele 6193
begren@@ 6194
mischen 6195
asien 6196
vermu@@ 6197
welchen 6198
krebs@@ 6199
reicht 6200
hauptsächlich 6201
zung 6202
fähi@@ 6203
female 6204
mothers 6205
concent@@ 6206
gun 6207
filled 6208
ath 6209
responsible 6210
billions 6211
photo 6212
expres@@ 6213
reas@@ 6214
adults 6215
gift 6216
events 6217
isra@@ 6218
creatures 6219
sity 6220
organ 6221
crime 6222
traffic 6223
3d 6224
sir 6225
og@@ 6226
olymp@@ 6227
gelan@@ 6228
rein 6229
viren 6230
ktionen 6231
hergestellt 6232
dritten 6233
wandel 6234
geschen@@ 6235
arbeiter 6236
laufe 6237
milliarde 6238
kontro@@ 6239
experimente 6240
alisiert 6241
titel 6242
geschi@@ 6243
charak@@ 6244
nochmal 6245
geschä@@ 6246
schwarze 6247
ish@@ 6248
investment 6249
pharma@@ 6250
brother 6251
recei@@ 6252
jung@@ 6253
adam 6254
tricks 6255
uganda 6256
raised 6257
yn 6258
chromo@@ 6259
tie@@ 6260
tim 6261
priv@@ 6262
s. 6263
suit 6264
arm@@ 6265
norden 6266
irgendetwas 6267
schicht 6268
perfekt 6269
tierte 6270
gezogen 6271
großteil 6272
konstru@@ 6273
entsteht 6274
kehr@@ 6275
home@@ 6276
phen 6277
constru@@ 6278
separ@@ 6279
atz 6280
competition 6281
capable 6282
broad@@ 6283
color@@ 6284
compar@@ 6285
begins 6286
cheap 6287
are@@ 6288
roll 6289
mexico 6290
ves@@ 6291
gentle@@ 6292
lady 6293
fascinating 6294
gab@@ 6295
nel@@ 6296
2,@@ 6297
habit@@ 6298
calcu@@ 6299
simul@@ 6300
alize 6301
iphone 6302
dient 6303
ison 6304
warm 6305
chip 6306
lot@@ 6307
mengen 6308
weiteres 6309
beschreiben 6310
bekannten 6311
gegensei@@ 6312
geschle@@ 6313
hohe 6314
vergleichen 6315
überzeugt 6316
graben 6317
gelesen 6318
bü@@ 6319
überzeugen 6320
zierten 6321
vö@@ 6322
umgehen 6323
aktiv 6324
fung 6325
zuhören 6326
außen@@ 6327
fill 6328
ki 6329
sector 6330
ace 6331
distance 6332
experiences 6333
identity 6334
influence 6335
easier 6336
autis@@ 6337
activ@@ 6338
leb@@ 6339
hopefully 6340
vast 6341
dry 6342
and-@@ 6343
thri@@ 6344
sick 6345
caught 6346
simpli@@ 6347
sy 6348
statistics 6349
gation 6350
ried 6351
mitg@@ 6352
lass 6353
stig 6354
elten 6355
noten 6356
stür@@ 6357
betrifft 6358
älter 6359
neugi@@ 6360
woher 6361
pyrami@@ 6362
ota 6363
texas 6364
rup@@ 6365
cont@@ 6366
contro@@ 6367
respond 6368
gif@@ 6369
motivation 6370
leaving 6371
duc@@ 6372
facili@@ 6373
impres@@ 6374
embra@@ 6375
wr@@ 6376
holding 6377
institution 6378
dio@@ 6379
vern@@ 6380
diam@@ 6381
profound 6382
colors 6383
stopp@@ 6384
hou@@ 6385
hell@@ 6386
gren@@ 6387
poly@@ 6388
nega@@ 6389
zig 6390
wissenschaftlichen 6391
endet 6392
neuer 6393
ständen 6394
morgens 6395
täglich 6396
behand@@ 6397
schö@@ 6398
unterschiedlichen 6399
gewissen 6400
erenden 6401
meat 6402
spirit 6403
quie@@ 6404
promise 6405
2,000 6406
compe@@ 6407
trend 6408
wit@@ 6409
separate 6410
lou@@ 6411
mouth 6412
circle 6413
galaxy 6414
astro@@ 6415
quanti@@ 6416
th-@@ 6417
korea 6418
rid 6419
kid@@ 6420
ai 6421
uner@@ 6422
kenn@@ 6423
mär@@ 6424
lieber 6425
verbracht 6426
wohner 6427
bett 6428
zeugen 6429
präsentiert 6430
übertragen 6431
rahmen 6432
verhindern 6433
lernt 6434
wirtschaftlichen 6435
erende 6436
gehei@@ 6437
werten 6438
brachten 6439
kurze 6440
vertei@@ 6441
unabhängi@@ 6442
elemente 6443
herunter@@ 6444
erster 6445
dritt@@ 6446
basiert 6447
ome@@ 6448
breast 6449
spli@@ 6450
tradition@@ 6451
tured 6452
tting 6453
toi@@ 6454
grand 6455
25@@ 6456
economics 6457
post 6458
enjoy 6459
church 6460
desert 6461
ites 6462
kee@@ 6463
nee 6464
vement 6465
mates 6466
powered 6467
fif@@ 6468
concep@@ 6469
stein@@ 6470
teu@@ 6471
zin 6472
anderem 6473
könnt 6474
stö@@ 6475
dieren 6476
tue 6477
fordert 6478
dahin 6479
werke 6480
drittel 6481
erkannte 6482
begeistert 6483
fischen 6484
stoßen 6485
gefahr 6486
weder 6487
flächen 6488
dank@@ 6489
pingu@@ 6490
absor@@ 6491
shouldn 6492
offer 6493
yo 6494
sold 6495
juli@@ 6496
describe 6497
studied 6498
names 6499
dreams 6500
speech 6501
progra@@ 6502
pig@@ 6503
count 6504
ritual 6505
otherwise 6506
plane 6507
aci@@ 6508
ite 6509
determin@@ 6510
importantly 6511
trained 6512
mail 6513
jum@@ 6514
symbol 6515
paint 6516
proble@@ 6517
measu@@ 6518
campaign 6519
technolog@@ 6520
nom@@ 6521
22 6522
sequen@@ 6523
buch@@ 6524
atem@@ 6525
spiegel 6526
lig 6527
mütter 6528
sowie 6529
arbeiteten 6530
gerü@@ 6531
neten 6532
wunderbar 6533
handel 6534
theit 6535
gespielt 6536
hinweg 6537
steller 6538
anten 6539
normale 6540
aufnahmen 6541
insekten 6542
außer@@ 6543
falsche 6544
allge@@ 6545
schwimmen 6546
einsetzen 6547
bi 6548
diabetes 6549
27 6550
shar@@ 6551
belief 6552
telescop@@ 6553
insects 6554
normally 6555
mix 6556
occur@@ 6557
2004 6558
wear 6559
indu@@ 6560
cele@@ 6561
art@@ 6562
invest 6563
invisible 6564
scha@@ 6565
derek 6566
brauchten 6567
brust@@ 6568
hintergrund 6569
kennt 6570
klassen@@ 6571
bildschirm 6572
wachen 6573
sichten 6574
echten 6575
netzwerke 6576
erzähle 6577
dürfen 6578
gelei@@ 6579
errei@@ 6580
verbreitet 6581
häl@@ 6582
gerung 6583
gkeiten 6584
dicht 6585
krimin@@ 6586
arc@@ 6587
beach 6588
wave 6589
challen@@ 6590
fund 6591
spir@@ 6592
email 6593
catch 6594
consumption 6595
universal 6596
int 6597
patent 6598
independent 6599
sudden 6600
aling 6601
lic 6602
spac@@ 6603
warming 6604
principles 6605
therapy 6606
sister 6607
beat 6608
mel 6609
intelligen@@ 6610
ologe 6611
häu@@ 6612
starke 6613
griff 6614
mitteln 6615
sterb@@ 6616
malen 6617
entwickl@@ 6618
ungskraft 6619
institutionen 6620
führten 6621
verlangen 6622
damage 6623
factory 6624
ishing 6625
placed 6626
camp 6627
inci@@ 6628
speak@@ 6629
molecule 6630
volu@@ 6631
gens 6632
steps 6633
everyday 6634
bee@@ 6635
seriously 6636
95 6637
tem@@ 6638
stimu@@ 6639
tus 6640
graphi@@ 6641
sor 6642
airplane 6643
geogra@@ 6644
kolle@@ 6645
blei@@ 6646
kön@@ 6647
büro@@ 6648
lebten 6649
fördern 6650
ktiv 6651
praktisch 6652
großarti@@ 6653
akt 6654
stenz 6655
zauber@@ 6656
strö@@ 6657
schri@@ 6658
dungs@@ 6659
lachen 6660
letzt 6661
behör@@ 6662
dolph@@ 6663
civilization 6664
professional 6665
entirely 6666
operating 6667
compli@@ 6668
lack 6669
fit@@ 6670
languages 6671
disco@@ 6672
tons 6673
sky@@ 6674
opposite 6675
creation 6676
transform 6677
infin@@ 6678
elegan@@ 6679
inn 6680
gabe 6681
schlei@@ 6682
bf 6683
wurz@@ 6684
erweiter@@ 6685
gewisse 6686
forschungs@@ 6687
itäten 6688
bauern 6689
dene 6690
hund 6691
eingesetzt 6692
bereiche 6693
dichte 6694
tiefe 6695
kompon@@ 6696
isch@@ 6697
zeitalter 6698
une 6699
func@@ 6700
controll@@ 6701
keeping 6702
spot 6703
stuck 6704
kers 6705
husband 6706
master 6707
appli@@ 6708
dp 6709
limited 6710
angel@@ 6711
bles 6712
glas 6713
small@@ 6714
cken@@ 6715
yesterday 6716
cers 6717
hmen 6718
emotion 6719
analysis 6720
worl@@ 6721
option 6722
frank 6723
jud@@ 6724
ception 6725
ld 6726
geld@@ 6727
nannte 6728
rücken 6729
vermögen 6730
fingen 6731
ungewöhn@@ 6732
richtet 6733
gehabt 6734
geladen 6735
dienst@@ 6736
blut 6737
viruses 6738
fell 6739
background 6740
acceler@@ 6741
commercial 6742
tain@@ 6743
recycl@@ 6744
reli@@ 6745
integra@@ 6746
argue 6747
concerned 6748
deliver 6749
article 6750
cis@@ 6751
distribu@@ 6752
kni@@ 6753
emergen@@ 6754
dynamic 6755
poster 6756
photos 6757
invi@@ 6758
atta@@ 6759
match 6760
desire 6761
principle 6762
player 6763
ene@@ 6764
ference 6765
spit@@ 6766
samer 6767
herr 6768
raus@@ 6769
verwandeln 6770
erfolgrei@@ 6771
ktiven 6772
zubringen 6773
geburt 6774
bestimmen 6775
kogni@@ 6776
menten 6777
schaute 6778
interessieren 6779
geheim@@ 6780
alleine 6781
kürzlich 6782
drän@@ 6783
mid@@ 6784
believed 6785
opened 6786
ograph@@ 6787
partici@@ 6788
managed 6789
deeply 6790
tural 6791
ough 6792
2006 6793
advantage 6794
hate 6795
opini@@ 6796
horri@@ 6797
automo@@ 6798
qua@@ 6799
65 6800
designing 6801
clou@@ 6802
tot@@ 6803
toward 6804
janu@@ 6805
free@@ 6806
fing@@ 6807
propor@@ 6808
viet@@ 6809
play@@ 6810
standar@@ 6811
autor@@ 6812
olog@@ 6813
esse 6814
kurz@@ 6815
sweise 6816
fett@@ 6817
inen 6818
sichtlich 6819
wahrnehmung 6820
wirkt 6821
verzwei@@ 6822
1. 6823
kalifornien 6824
leistungen 6825
herausforderungen 6826
träume 6827
knochen 6828
versuchten 6829
glücklicherweise 6830
einander@@ 6831
täten 6832
behinder@@ 6833
sorge 6834
schlimm@@ 6835
ierten 6836
gehirne 6837
verbreiten 6838
winkel 6839
ägyp@@ 6840
10.000 6841
therapie 6842
blick@@ 6843
getötet 6844
letter 6845
oceans 6846
atten@@ 6847
ko 6848
ories 6849
dinner 6850
whenever 6851
electrical 6852
followed 6853
childhood 6854
angeles 6855
aug@@ 6856
stit@@ 6857
equal 6858
majority 6859
predict 6860
sport 6861
exhi@@ 6862
pages 6863
spaces 6864
vir@@ 6865
failed 6866
hang 6867
anony@@ 6868
dium 6869
forma@@ 6870
increasingly 6871
tomorrow 6872
nets 6873
bol@@ 6874
narra@@ 6875
evil 6876
ingu@@ 6877
ok@@ 6878
nah@@ 6879
stung 6880
gehören 6881
lichem 6882
liebt 6883
pfei@@ 6884
händen 6885
mäß@@ 6886
telefon 6887
disku@@ 6888
irak 6889
fährt 6890
tnis 6891
verantwortlich 6892
bekamen 6893
ähnliche 6894
bemerkt 6895
zählen 6896
erklär@@ 6897
wenig@@ 6898
wichti@@ 6899
platt@@ 6900
gebro@@ 6901
deckt 6902
abhängig 6903
gese@@ 6904
umge@@ 6905
erstaunliche 6906
opfer 6907
treibt 6908
driven 6909
surprise 6910
organized 6911
generate 6912
edu@@ 6913
nes@@ 6914
yor@@ 6915
cer 6916
ills 6917
voices 6918
thinks 6919
eland 6920
influ@@ 6921
dialo@@ 6922
opening 6923
sensi@@ 6924
chemi@@ 6925
insel 6926
aner 6927
drin 6928
wahren 6929
streben 6930
bauten 6931
moderne 6932
vertrau@@ 6933
öffentlichkeit 6934
dienen 6935
erkenntnis 6936
spruch 6937
aufhören 6938
fünf@@ 6939
gere 6940
elektron@@ 6941
gewand@@ 6942
vögel 6943
teilung 6944
doppelt 6945
babys 6946
adi@@ 6947
gates 6948
whom 6949
vo 6950
direct 6951
perfectly 6952
random 6953
due 6954
2003 6955
wealth 6956
entreprene@@ 6957
secon@@ 6958
pus 6959
23 6960
soil 6961
constantly 6962
maker 6963
oxford 6964
stian 6965
according 6966
wearing 6967
participa@@ 6968
vice 6969
tent@@ 6970
post-@@ 6971
kung 6972
trip 6973
origami 6974
ald 6975
impul@@ 6976
legi@@ 6977
kus@@ 6978
rand 6979
berg@@ 6980
sw 6981
maus 6982
cen 6983
chten@@ 6984
tiges 6985
nutzt 6986
tigung 6987
weißt 6988
stigen 6989
genauer 6990
weißen 6991
kontext 6992
bloß 6993
drawing 6994
seas@@ 6995
prop@@ 6996
graduate 6997
cognitive 6998
approach@@ 6999
heal@@ 7000
ery 7001
care@@ 7002
atures 7003
jump 7004
guar@@ 7005
signals 7006
cents 7007
define 7008
prevent 7009
failure 7010
l-@@ 7011
practic@@ 7012
brow@@ 7013
transition 7014
sign@@ 7015
survival 7016
chap@@ 7017
humor 7018
meta@@ 7019
tern@@ 7020
fourth 7021
kins 7022
phan@@ 7023
handy 7024
robot@@ 7025
mut 7026
trie 7027
wachsen@@ 7028
äne 7029
künstler@@ 7030
rechts@@ 7031
überrascht 7032
bedeuten 7033
eindruck 7034
schmerz 7035
inspiriert 7036
gemü@@ 7037
kurs 7038
erseits 7039
ameisen 7040
klini@@ 7041
überprü@@ 7042
geschickt 7043
zeichnungen 7044
tischer 7045
heits@@ 7046
militär@@ 7047
194@@ 7048
gry 7049
volunte@@ 7050
isol@@ 7051
shif@@ 7052
currently 7053
navi@@ 7054
compare 7055
miss 7056
harder 7057
unless 7058
sim@@ 7059
equivalent 7060
2001 7061
motiv@@ 7062
sty 7063
bag@@ 7064
martin 7065
dimensions 7066
secre@@ 7067
emis@@ 7068
corruption 7069
ghana 7070
journalist 7071
stock@@ 7072
erer 7073
ön@@ 7074
privat@@ 7075
europä@@ 7076
dauern 7077
normalen 7078
unternehmer 7079
lieblings@@ 7080
polizei 7081
signale 7082
ppt 7083
kurzen 7084
ansicht 7085
öffentliche 7086
stimm@@ 7087
gegenteil 7088
früh 7089
bezahlt 7090
beeindruck@@ 7091
wisst 7092
interagieren 7093
diagra@@ 7094
gather@@ 7095
producing 7096
metaphor 7097
classroom 7098
goo@@ 7099
leadership 7100
250 7101
cans 7102
athei@@ 7103
probe 7104
library 7105
wa 7106
explan@@ 7107
roots 7108
schaf@@ 7109
ordinary 7110
normal@@ 7111
friend@@ 7112
stabili@@ 7113
erst@@ 7114
wiesen 7115
verschwinden 7116
lebewesen 7117
verhältnis 7118
körpers 7119
bienen 7120
grün 7121
zten 7122
alisten 7123
läch@@ 7124
gefahren 7125
eure 7126
wake 7127
leaves 7128
army 7129
gay 7130
stran@@ 7131
experts 7132
chil@@ 7133
cular 7134
digit@@ 7135
syl@@ 7136
galaxies 7137
lear@@ 7138
cky 7139
microsoft 7140
blogs 7141
photo@@ 7142
cel@@ 7143
iso@@ 7144
affect 7145
illusion 7146
raft 7147
mie 7148
aufbauen 7149
ernährung 7150
markt@@ 7151
verwal@@ 7152
wegs 7153
mindestens 7154
fahrer 7155
verbindet 7156
identität 7157
tanz 7158
erklärung 7159
starten 7160
deinen 7161
erscheinen 7162
gesetz@@ 7163
barer 7164
bietet 7165
gespräch 7166
schlüssel@@ 7167
drink 7168
one@@ 7169
actor 7170
admini@@ 7171
rural 7172
horizon@@ 7173
d.@@ 7174
caused 7175
lunch 7176
worldwide 7177
invited 7178
stent 7179
distribution 7180
weird 7181
tough 7182
harmon@@ 7183
exists 7184
treated 7185
d. 7186
gain 7187
steel 7188
an-@@ 7189
worried 7190
succe@@ 7191
tour 7192
keys 7193
shall 7194
ffe@@ 7195
mee 7196
fisch@@ 7197
verschmu@@ 7198
verkauf@@ 7199
akzep@@ 7200
haltung 7201
kopf@@ 7202
ktive 7203
lichkeiten 7204
vorteil 7205
seitdem 7206
häufig 7207
existieren 7208
sphäre 7209
gesprä@@ 7210
gäbe 7211
brauche 7212
individuen 7213
meiste 7214
sauerstoff 7215
grundlegende 7216
persönliche 7217
chts 7218
gestorben 7219
sicherheits@@ 7220
konzep@@ 7221
verhaltens@@ 7222
werbung 7223
musst 7224
terie 7225
32 7226
suppose 7227
pet 7228
continent 7229
artificial 7230
activi@@ 7231
spra@@ 7232
autonom@@ 7233
stanford 7234
appl@@ 7235
paying 7236
hidden 7237
sever@@ 7238
h-@@ 7239
garden 7240
temper@@ 7241
shapes 7242
holes 7243
wars 7244
compared 7245
multiple 7246
orig@@ 7247
pes 7248
ulti@@ 7249
debate 7250
kenya 7251
standards 7252
nant 7253
seat 7254
enz@@ 7255
tur 7256
japan@@ 7257
sz@@ 7258
baum@@ 7259
anrei@@ 7260
schreib@@ 7261
fizieren 7262
angenommen 7263
pfe 7264
hoffen 7265
unterscheiden 7266
gegensatz 7267
generationen 7268
reduzieren 7269
schlechten 7270
verschieden@@ 7271
höher 7272
erfinden 7273
erhält 7274
tzlich 7275
european 7276
japanese 7277
canada 7278
chron@@ 7279
vehicle 7280
trends 7281
hasn 7282
anthropo@@ 7283
unding 7284
oned 7285
construction 7286
shoes 7287
negoti@@ 7288
double 7289
layer 7290
planning 7291
wri@@ 7292
threat 7293
han 7294
real@@ 7295
businesses 7296
refer@@ 7297
innovative 7298
weapons 7299
skep@@ 7300
eleph@@ 7301
echn@@ 7302
gand@@ 7303
lager 7304
wein@@ 7305
best@@ 7306
debat@@ 7307
regen 7308
kus 7309
krank 7310
blü@@ 7311
krank@@ 7312
äd@@ 7313
komplexe 7314
inneren 7315
schnell@@ 7316
gieren 7317
strategie 7318
leiten 7319
schlüssel 7320
chem 7321
augenblick 7322
igkeit 7323
kulturen 7324
berührt 7325
fernseh@@ 7326
rätsel 7327
trug 7328
einheit 7329
marine 7330
waves 7331
chemicals 7332
20th 7333
appro@@ 7334
expression 7335
wis@@ 7336
-up 7337
acts 7338
establi@@ 7339
contr@@ 7340
cure 7341
joy 7342
ols 7343
ay 7344
develop@@ 7345
wea@@ 7346
represent 7347
sec@@ 7348
embar@@ 7349
copy 7350
eric 7351
bright 7352
blocks 7353
manhattan 7354
mobili@@ 7355
circum@@ 7356
fire@@ 7357
beginn@@ 7358
geome@@ 7359
deta@@ 7360
thesis 7361
bed@@ 7362
tenden@@ 7363
appear 7364
super 7365
muscle 7366
neighborhood 7367
beg@@ 7368
fan 7369
welle 7370
blau 7371
märkte 7372
einiger 7373
arkti@@ 7374
nachbar@@ 7375
doku@@ 7376
beob@@ 7377
arbeit@@ 7378
beschäf@@ 7379
heisst 7380
benen 7381
mmen 7382
abschluss 7383
drückt 7384
unterschie@@ 7385
brech@@ 7386
nieman@@ 7387
musik@@ 7388
kari@@ 7389
toren 7390
lebenden 7391
gegenwär@@ 7392
itä@@ 7393
täusch@@ 7394
anischen 7395
klar@@ 7396
relativ 7397
schni@@ 7398
näher@@ 7399
preser@@ 7400
popu@@ 7401
proud 7402
weather 7403
collective 7404
strategy 7405
mortality 7406
syndro@@ 7407
described 7408
than@@ 7409
alex@@ 7410
parti@@ 7411
strate 7412
bear 7413
coura@@ 7414
mobil@@ 7415
interview 7416
pre-@@ 7417
highest 7418
facts 7419
ration@@ 7420
collect 7421
sna@@ 7422
mentioned 7423
nai@@ 7424
elling 7425
transl@@ 7426
bet 7427
incre@@ 7428
melt 7429
nest 7430
tumor@@ 7431
phosp@@ 7432
dä@@ 7433
systemen 7434
faktor 7435
bekann@@ 7436
schneiden 7437
wichtigen 7438
annehmen 7439
züge 7440
forder@@ 7441
nationen 7442
beweg@@ 7443
wobei 7444
entschei@@ 7445
zunehmen@@ 7446
nden 7447
emotionen 7448
riff 7449
jugend@@ 7450
hmt 7451
sequenzen 7452
tox@@ 7453
crow@@ 7454
generations 7455
grown 7456
proce@@ 7457
upp@@ 7458
alists 7459
mas 7460
alist 7461
pole 7462
sub-@@ 7463
vote 7464
chemistry 7465
dinosaurs 7466
honest 7467
britain 7468
four@@ 7469
cock@@ 7470
nett 7471
experiment@@ 7472
feelings 7473
dul@@ 7474
chicken 7475
brothers 7476
houses 7477
brasili@@ 7478
kap@@ 7479
internet@@ 7480
wenigen 7481
wunden 7482
holz 7483
drüben 7484
spüren 7485
dran 7486
bedarf 7487
soviel 7488
entspricht 7489
anwenden 7490
quellen 7491
beschrän@@ 7492
schmerzen 7493
beglei@@ 7494
besondere 7495
worfen 7496
bahn@@ 7497
sitz@@ 7498
kunft 7499
vorfahren 7500
architekten 7501
notwen@@ 7502
dach 7503
sheit 7504
wechseln 7505
gefährlich 7506
fat 7507
ox@@ 7508
closed 7509
cape 7510
clip 7511
percei@@ 7512
emerging 7513
associated 7514
26 7515
ug@@ 7516
olo@@ 7517
mon 7518
associ@@ 7519
discipl@@ 7520
microscop@@ 7521
epi@@ 7522
bell 7523
dow 7524
letters 7525
characteri@@ 7526
violent 7527
interaction 7528
frag@@ 7529
transi@@ 7530
element@@ 7531
howard 7532
thers 7533
fossil 7534
clinical 7535
tie 7536
kb 7537
bein@@ 7538
konser@@ 7539
stoffen 7540
stammt 7541
entdeckung 7542
genau@@ 7543
nde 7544
bruder 7545
ernä@@ 7546
issen 7547
flug 7548
gessen 7549
rechen@@ 7550
unterricht 7551
verfügbar 7552
regionen 7553
politiker 7554
klär@@ 7555
chain 7556
heavy 7557
life@@ 7558
department 7559
woo@@ 7560
rapi@@ 7561
butt@@ 7562
ville 7563
launched 7564
key@@ 7565
wired 7566
therap@@ 7567
od 7568
survi@@ 7569
dies@@ 7570
perman@@ 7571
disaster 7572
windows 7573
entertain@@ 7574
wild@@ 7575
bank@@ 7576
forced 7577
kit@@ 7578
saturn 7579
stab@@ 7580
inner@@ 7581
optimis@@ 7582
40@@ 7583
spectrum 7584
terrori@@ 7585
glam@@ 7586
transplan@@ 7587
rin@@ 7588
witz 7589
bs@@ 7590
angeb@@ 7591
solch 7592
aufgebaut 7593
persönlichen 7594
schaden 7595
langwei@@ 7596
fantastisch 7597
dutz@@ 7598
mittleren 7599
schuhe 7600
persönlich 7601
kts 7602
nötig 7603
bestand 7604
angeneh@@ 7605
bedürf@@ 7606
definieren 7607
wechsel 7608
trinken 7609
messer 7610
bemer@@ 7611
zuschau@@ 7612
schlimmer 7613
leiden@@ 7614
molecular 7615
oning 7616
lock 7617
cambridge 7618
technical 7619
rates 7620
losing 7621
married 7622
nas@@ 7623
iden@@ 7624
intellectual 7625
bine 7626
andre@@ 7627
announ@@ 7628
poor@@ 7629
100,000 7630
tch 7631
tles 7632
democratic 7633
migra@@ 7634
lec@@ 7635
celebra@@ 7636
ading 7637
leader 7638
mountains 7639
expedi@@ 7640
wra@@ 7641
resource 7642
equipment 7643
addition 7644
psycho@@ 7645
killing 7646
jack 7647
atten 7648
shoul@@ 7649
die@@ 7650
21@@ 7651
gul@@ 7652
blatt 7653
programme 7654
gross@@ 7655
schmu@@ 7656
feuer@@ 7657
erscheint 7658
pft 7659
wunder 7660
nungs@@ 7661
begri@@ 7662
fän@@ 7663
städ@@ 7664
potenzi@@ 7665
nachbarn 7666
vergan@@ 7667
schwä@@ 7668
schrift@@ 7669
mung 7670
dliche 7671
aspekt 7672
grundsätzlich 7673
beweise 7674
verfü@@ 7675
tiker 7676
entschul@@ 7677
marki@@ 7678
dinosaurier 7679
notwendig 7680
sprach@@ 7681
genom 7682
fie 7683
amo@@ 7684
initiative 7685
practical 7686
northern 7687
grandmother 7688
massi@@ 7689
daily 7690
coal 7691
parado@@ 7692
pleasure 7693
remote 7694
scan 7695
movies 7696
patri@@ 7697
gling 7698
amin@@ 7699
ckets 7700
organs 7701
coral 7702
alp@@ 7703
trials 7704
taste 7705
tili@@ 7706
rio 7707
consequences 7708
well@@ 7709
ille 7710
ket 7711
cau@@ 7712
toile@@ 7713
stur@@ 7714
stil 7715
aku@@ 7716
natürlichen 7717
bende 7718
erkennt 7719
gerechtigkeit 7720
ersetzen 7721
wirtschaftliche 7722
schmer@@ 7723
verbrachte 7724
medizinische 7725
lebenser@@ 7726
unabhängig 7727
verg@@ 7728
richtungen 7729
bibliothe@@ 7730
digitalen 7731
verfahren 7732
digkeit 7733
straßen@@ 7734
steine 7735
springen 7736
traditionellen 7737
sende 7738
galaxien 7739
galaxie 7740
bestimm@@ 7741
folgende 7742
dimensionen 7743
helden 7744
korruption 7745
smell 7746
awful 7747
contact 7748
surprised 7749
abilities 7750
avoid 7751
conf@@ 7752
sexual 7753
enjo@@ 7754
roughly 7755
advanced 7756
sight 7757
bang 7758
black@@ 7759
ize 7760
teeth 7761
homes 7762
aring 7763
cour@@ 7764
restaurants 7765
git@@ 7766
700 7767
swa@@ 7768
jo 7769
lem 7770
lee 7771
südafri@@ 7772
berühr@@ 7773
gesp@@ 7774
angesehen 7775
kindheit 7776
bedeuten@@ 7777
diert 7778
mexiko 7779
entstanden 7780
zerstören 7781
mikrosk@@ 7782
baute 7783
bereichen 7784
buchstab@@ 7785
veränder@@ 7786
schrän@@ 7787
chol@@ 7788
stac@@ 7789
gles 7790
substan@@ 7791
talent 7792
market@@ 7793
setting 7794
deter@@ 7795
vable 7796
alli@@ 7797
dens 7798
importance 7799
sad 7800
800 7801
express 7802
account 7803
cultures 7804
makers 7805
kilometers 7806
prime 7807
grab@@ 7808
spu@@ 7809
reci@@ 7810
florida 7811
occasi@@ 7812
3,000 7813
users 7814
condu@@ 7815
simu@@ 7816
proteins 7817
cially 7818
usi@@ 7819
affected 7820
tedx@@ 7821
v-@@ 7822
maga@@ 7823
mund 7824
zir@@ 7825
pf 7826
erlebt 7827
wellen 7828
überzeu@@ 7829
schau 7830
beschei@@ 7831
stech@@ 7832
elektrizität 7833
bevölker@@ 7834
euer 7835
schiff 7836
5.000 7837
halbe 7838
hängen 7839
konkur@@ 7840
tausenden 7841
teuer 7842
krä@@ 7843
höre 7844
feststellen 7845
bemü@@ 7846
spielte 7847
selling 7848
pacific 7849
advan@@ 7850
soldiers 7851
accident 7852
wire 7853
intuition 7854
lessons 7855
essential 7856
dealing 7857
meaning@@ 7858
display 7859
tony 7860
controlled 7861
zon@@ 7862
contain@@ 7863
wine 7864
reaction 7865
cil 7866
angle 7867
colli@@ 7868
inspi@@ 7869
club 7870
pho@@ 7871
lux@@ 7872
ale@@ 7873
mo 7874
nin@@ 7875
infor@@ 7876
anderth@@ 7877
gö@@ 7878
spen@@ 7879
zit@@ 7880
mittler@@ 7881
zuge@@ 7882
afrikanischen 7883
tzu@@ 7884
vermitteln 7885
gegend 7886
zerstört 7887
hinsicht 7888
müll 7889
hörten 7890
präsi@@ 7891
radik@@ 7892
studieren 7893
viertel 7894
lossen@@ 7895
präsentation 7896
untersucht 7897
erter 7898
hilfs@@ 7899
leistungs@@ 7900
wissenschaften 7901
westlichen 7902
aufen 7903
beschäftigen 7904
drück@@ 7905
beantworten 7906
besuchen 7907
regular 7908
flas@@ 7909
acci@@ 7910
horse 7911
fab@@ 7912
hadn 7913
honor 7914
user 7915
inning 7916
relative 7917
a. 7918
unds 7919
affec@@ 7920
illness 7921
hero 7922
streng@@ 7923
ption 7924
ht@@ 7925
possibilities 7926
stood 7927
prove 7928
section 7929
alzheimer 7930
gan 7931
graphic 7932
sey 7933
thoughts 7934
kro@@ 7935
vas@@ 7936
50@@ 7937
klo@@ 7938
langer 7939
beein@@ 7940
anhand 7941
hinten 7942
dunkel@@ 7943
ologische 7944
mäßig 7945
beschlossen 7946
gefallen 7947
gemeinden 7948
wachst@@ 7949
mern 7950
skla@@ 7951
müsste 7952
beobachtet 7953
ärm@@ 7954
löcher 7955
weit@@ 7956
ermu@@ 7957
äs@@ 7958
kaffee 7959
quasi 7960
jähri@@ 7961
basier@@ 7962
papi@@ 7963
gleichheit 7964
paraly@@ 7965
ination 7966
productive 7967
onal 7968
categ@@ 7969
sets 7970
researchers 7971
dir@@ 7972
preg@@ 7973
bronx 7974
radical 7975
property 7976
long-term 7977
underneath 7978
jes@@ 7979
pag@@ 7980
whereas 7981
effectively 7982
finish 7983
empty 7984
australia 7985
bby 7986
gravity 7987
transport 7988
itali@@ 7989
protection 7990
sci@@ 7991
cards 7992
analog@@ 7993
ric 7994
evolution@@ 7995
biot@@ 7996
ut 7997
eur@@ 7998
repar@@ 7999
é@@ 8000
geschü@@ 8001
molekul@@ 8002
atmen 8003
welchem 8004
gebeten 8005
wahn@@ 8006
aufzubauen 8007
lässi@@ 8008
winden 8009
lehren 8010
null 8011
zweck 8012
motivi@@ 8013
konfron@@ 8014
hlte 8015
lektion 8016
brücke 8017
hnung 8018
schme@@ 8019
erfindung 8020
kehrt 8021
jähr@@ 8022
teure 8023
zeitung 8024
jedenfalls 8025
verkehr@@ 8026
vergröß@@ 8027
wähl@@ 8028
bä@@ 8029
charakter 8030
vorstellungen 8031
wesentlich 8032
adult 8033
antibio@@ 8034
breath 8035
intern@@ 8036
clock 8037
silicon 8038
mathematical 8039
harv@@ 8040
round 8041
arrived 8042
who@@ 8043
orders 8044
ct@@ 8045
aw@@ 8046
aming 8047
nervous 8048
solved 8049
thin@@ 8050
specifically 8051
pleas@@ 8052
platform 8053
suggest 8054
dots 8055
ush 8056
tanz@@ 8057
maps 8058
stics 8059
metal 8060
cross 8061
differ@@ 8062
primi@@ 8063
online-@@ 8064
gall@@ 8065
block@@ 8066
minim@@ 8067
afri@@ 8068
initi@@ 8069
cin 8070
ssi@@ 8071
abra@@ 8072
rote 8073
kapu@@ 8074
chemikalien 8075
zivilisation 8076
täu@@ 8077
seln 8078
geändert 8079
pfle@@ 8080
strom@@ 8081
verlust 8082
dunkl@@ 8083
ktes 8084
werken 8085
dienst 8086
entdeckte 8087
erforsch@@ 8088
schließ@@ 8089
eres 8090
faktoren 8091
komplex 8092
kerl 8093
ziel@@ 8094
lasse 8095
entworfen 8096
tigte 8097
freiwilli@@ 8098
konflikt 8099
statistiken 8100
wirklichen 8101
existi@@ 8102
calling 8103
barri@@ 8104
demand 8105
oral 8106
picked 8107
sation 8108
atory 8109
enzy@@ 8110
variety 8111
sophisti@@ 8112
magni@@ 8113
saved 8114
orbit 8115
ce-@@ 8116
repu@@ 8117
curious 8118
wings 8119
any@@ 8120
requi@@ 8121
civili@@ 8122
stant 8123
geor@@ 8124
spoke 8125
nigeri@@ 8126
steven 8127
sharks 8128
magnetic 8129
plans 8130
sugar 8131
revolution@@ 8132
run@@ 8133
von@@ 8134
tot 8135
sser 8136
saal 8137
berichten 8138
folie 8139
junger 8140
verkehr 8141
menschlicher 8142
beweisen 8143
biert 8144
nutzung 8145
bedürfnisse 8146
mitglieder 8147
presse 8148
selten 8149
zusätz@@ 8150
ökon@@ 8151
lediglich 8152
stärke 8153
zte 8154
woll@@ 8155
gramm 8156
verab@@ 8157
bakteri@@ 8158
lustig 8159
erwähnt 8160
gesundheitswesen 8161
kreieren 8162
experienced 8163
connections 8164
diet 8165
zz 8166
definitely 8167
valuable 8168
suggest@@ 8169
existence 8170
retro@@ 8171
sources 8172
dile@@ 8173
gely 8174
suggests 8175
scene 8176
expan@@ 8177
dam 8178
considered 8179
craft 8180
fewer 8181
tober 8182
conduc@@ 8183
mad 8184
kev@@ 8185
tsun@@ 8186
mali@@ 8187
fail 8188
thei@@ 8189
bein 8190
stärker 8191
gelen@@ 8192
teilneh@@ 8193
fahrt 8194
nern 8195
momente 8196
viert 8197
entsch@@ 8198
bekannte 8199
hafte 8200
genie@@ 8201
erlaub@@ 8202
erstellt 8203
singen 8204
stellungen 8205
blieb 8206
wahrschein@@ 8207
franzö@@ 8208
skulp@@ 8209
medikament 8210
buying 8211
director 8212
ight 8213
migr@@ 8214
sett@@ 8215
distin@@ 8216
folks 8217
elimin@@ 8218
ri 8219
notes 8220
relatively 8221
goals 8222
relation 8223
bene@@ 8224
ships 8225
invention 8226
radiation 8227
method 8228
techniques 8229
gps 8230
evolutionary 8231
target 8232
simulation 8233
characters 8234
operate 8235
players 8236
hallu@@ 8237
metho@@ 8238
architect 8239
fresh 8240
crash 8241
explosion 8242
kapital 8243
doll@@ 8244
silk 8245
gat@@ 8246
hiv-@@ 8247
toten 8248
fabrik 8249
furcht@@ 8250
verknü@@ 8251
innere 8252
schlafen 8253
kühl@@ 8254
sonder@@ 8255
blauen 8256
unterrichten 8257
nahe@@ 8258
verteilt 8259
beispielsweise 8260
zugänglich 8261
verdam@@ 8262
effektiv 8263
teles@@ 8264
dunkle 8265
aufbau 8266
palä@@ 8267
grünen 8268
beinahe 8269
unglaublichen 8270
gewe@@ 8271
medien@@ 8272
dameri@@ 8273
schwierigkeiten 8274
gemäl@@ 8275
entwicklungsländern 8276
achse 8277
wirkliche 8278
sprü@@ 8279
verbessert 8280
ressed 8281
eco@@ 8282
rene@@ 8283
aded 8284
lifetime 8285
require 8286
rest@@ 8287
newspaper 8288
blan@@ 8289
pause 8290
employees 8291
efficiency 8292
aries 8293
centers 8294
stable 8295
inf@@ 8296
opp@@ 8297
kitchen 8298
ib@@ 8299
cab@@ 8300
dimension 8301
plays 8302
agenda 8303
ter-@@ 8304
credit 8305
mented 8306
sin 8307
kas 8308
homo 8309
computing 8310
stry 8311
typically 8312
convince 8313
perception 8314
dogs 8315
increasing 8316
smith 8317
sop@@ 8318
axis 8319
att@@ 8320
mama 8321
13@@ 8322
authenti@@ 8323
photographs 8324
nik 8325
mammo@@ 8326
zielen 8327
meer@@ 8328
diagramm 8329
llig 8330
erkannt 8331
einrichtungen 8332
müssten 8333
gesellschaft@@ 8334
solange 8335
abhängi@@ 8336
gefällt 8337
ologischen 8338
molekül 8339
übrig 8340
geschlagen 8341
komple@@ 8342
mitarbeiter 8343
herren 8344
internationalen 8345
inhalt 8346
identify 8347
eff@@ 8348
ore@@ 8349
tale 8350
haw@@ 8351
prepared 8352
ritu@@ 8353
fail@@ 8354
sages 8355
testing 8356
mode 8357
defined 8358
sides 8359
gap 8360
scrat@@ 8361
arly 8362
gold@@ 8363
gla@@ 8364
caf@@ 8365
pants 8366
gore 8367
explains 8368
serve 8369
laboratory 8370
teenager 8371
ardo 8372
flat 8373
bai 8374
filter 8375
swim 8376
epidemic 8377
awareness 8378
atoms 8379
brian 8380
stop@@ 8381
mails 8382
hie@@ 8383
mie@@ 8384
asse 8385
durchschnittliche 8386
ält 8387
genü@@ 8388
grosse 8389
situationen 8390
chtern 8391
insbesondere 8392
katastrop@@ 8393
diskussion 8394
tü@@ 8395
aufregend 8396
gesichter 8397
geregt 8398
falten 8399
deln 8400
schluss@@ 8401
büchern 8402
liefer@@ 8403
maßstab 8404
anteil 8405
seltsam 8406
wärmung 8407
igkeiten 8408
geburt@@ 8409
schwarzen 8410
kochen 8411
ilfe 8412
nützlich 8413
webseite 8414
willst 8415
kampagne 8416
breaking 8417
curi@@ 8418
sees 8419
nor 8420
peak 8421
safety 8422
former 8423
liked 8424
phr@@ 8425
ecu@@ 8426
represents 8427
marriage 8428
jim 8429
applied 8430
clever 8431
u.n. 8432
osity 8433
lay 8434
factor 8435
aled 8436
pad 8437
previous 8438
earth@@ 8439
sentence 8440
piano 8441
clas@@ 8442
text@@ 8443
fair@@ 8444
reward 8445
sour@@ 8446
adverti@@ 8447
fishing 8448
28 8449
alterna@@ 8450
waff@@ 8451
regul@@ 8452
para@@ 8453
implan@@ 8454
stif@@ 8455
wick@@ 8456
mutter@@ 8457
den-@@ 8458
koll@@ 8459
rett@@ 8460
kran@@ 8461
kompliziert 8462
tasche 8463
vorbei@@ 8464
serie 8465
autor 8466
kungen 8467
vorne 8468
unfall 8469
artige 8470
riesen@@ 8471
schöpf@@ 8472
decken 8473
lokalen 8474
tlichen 8475
einiges 8476
grüne 8477
erken@@ 8478
eindeu@@ 8479
deutsch@@ 8480
äußerst 8481
wüste 8482
heißen 8483
nicht@@ 8484
linge 8485
prinzipien 8486
altet 8487
vorge@@ 8488
dna-@@ 8489
schick@@ 8490
theme 8491
unts 8492
ecosystem 8493
intri@@ 8494
artic@@ 8495
writer 8496
nie@@ 8497
roads 8498
1960 8499
rect 8500
naturally 8501
bizar@@ 8502
facing 8503
ander 8504
reti@@ 8505
primary 8506
ladies 8507
vulnerable 8508
satis@@ 8509
pack 8510
sequ@@ 8511
matri@@ 8512
eastern 8513
boundar@@ 8514
var@@ 8515
sent@@ 8516
style 8517
vul@@ 8518
personally 8519
tables 8520
confidence 8521
spin@@ 8522
villa@@ 8523
battery 8524
fusion 8525
quant@@ 8526
engagement 8527
henry 8528
heim 8529
schnei@@ 8530
vog@@ 8531
konz@@ 8532
minister@@ 8533
ost@@ 8534
gesund 8535
tert 8536
tnisse 8537
entstand 8538
gelebt 8539
gegründet 8540
wettbewerb 8541
verpflich@@ 8542
freundin 8543
großmutter 8544
arbeitsp@@ 8545
verwandelt 8546
häusern 8547
gewohn@@ 8548
versteht 8549
empfin@@ 8550
beweis 8551
ausmaß 8552
grau@@ 8553
moralische 8554
beziehen 8555
telefon@@ 8556
liefern 8557
spiegel@@ 8558
nachts 8559
strahlung 8560
inieren 8561
21. 8562
risiken 8563
hallo 8564
erwachsenen 8565
schaue 8566
glü@@ 8567
brach 8568
geschma@@ 8569
verring@@ 8570
zitat 8571
überqu@@ 8572
hurt 8573
males 8574
arr@@ 8575
joe 8576
193@@ 8577
24@@ 8578
verse 8579
visible 8580
120 8581
bud@@ 8582
deeper 8583
ks@@ 8584
whit@@ 8585
ished 8586
cational 8587
accept 8588
burn 8589
ipo@@ 8590
liquid 8591
mechanis@@ 8592
gest 8593
introduced 8594
rier 8595
ord 8596
environments 8597
inje@@ 8598
frame 8599
febru@@ 8600
é 8601
exchange 8602
risks 8603
m-@@ 8604
tw@@ 8605
ier 8606
govern@@ 8607
gment 8608
planes 8609
properties 8610
pop 8611
resili@@ 8612
psychiat@@ 8613
may@@ 8614
verti@@ 8615
oxyto@@ 8616
national@@ 8617
verbrei@@ 8618
metapher 8619
geräusche 8620
gegenwart 8621
stärken 8622
sinni@@ 8623
rennen 8624
stimmung 8625
anpas@@ 8626
jewei@@ 8627
breite 8628
verblüff@@ 8629
sektor 8630
digitale 8631
außen 8632
australien 8633
weiße 8634
beinhaltet 8635
holfen 8636
chemie 8637
zahn@@ 8638
struggle 8639
string 8640
driver 8641
convinced 8642
stimul@@ 8643
poetry 8644
mem@@ 8645
schizophren@@ 8646
unlike 8647
laptops 8648
appropriate 8649
battle 8650
favor@@ 8651
location 8652
survey 8653
switch 8654
ims 8655
strength 8656
senses 8657
ctor 8658
sandwi@@ 8659
garage 8660
wise 8661
films 8662
mention 8663
planet@@ 8664
orange 8665
tane@@ 8666
trillion 8667
interpretation 8668
capture 8669
tivi@@ 8670
ee@@ 8671
gravi@@ 8672
strand 8673
processes 8674
ternal 8675
leon@@ 8676
behaviors 8677
tains 8678
venue 8679
taliban 8680
mich@@ 8681
astron@@ 8682
ames 8683
venti@@ 8684
anal@@ 8685
85 8686
sach@@ 8687
allgemeinen 8688
glamour 8689
enorme 8690
natür@@ 8691
gering@@ 8692
selbe 8693
heran@@ 8694
bogen 8695
erkenn@@ 8696
hnte 8697
zusammenzu@@ 8698
nive@@ 8699
anlage 8700
erwachsene 8701
intellektu@@ 8702
beschloss 8703
stehe 8704
handlungen 8705
sätze 8706
schlägt 8707
herstellung 8708
sowas 8709
faszin@@ 8710
schreibt 8711
vertraut 8712
geber 8713
ewi@@ 8714
schimpansen 8715
sitz 8716
sty@@ 8717
stin@@ 8718
trage@@ 8719
carrying 8720
mira@@ 8721
requires 8722
replace 8723
sending 8724
southern 8725
stupid 8726
rare 8727
collapse 8728
bucks 8729
germany 8730
buil@@ 8731
generally 8732
raising 8733
click 8734
brand@@ 8735
frame@@ 8736
attle 8737
exploration 8738
hits 8739
ay@@ 8740
of-@@ 8741
spiritu@@ 8742
miner@@ 8743
queen 8744
nose 8745
mistake 8746
wondering 8747
broo@@ 8748
songs 8749
cooking 8750
tour@@ 8751
roof 8752
banglades@@ 8753
open@@ 8754
emissions 8755
politicians 8756
bob 8757
tries 8758
aden 8759
vagina 8760
lincol@@ 8761
za 8762
soft@@ 8763
uten 8764
enheit 8765
roh@@ 8766
licherweise 8767
korre@@ 8768
versu@@ 8769
ausgeben 8770
vorzustellen 8771
akzeptieren 8772
wieviel 8773
rollen 8774
anstelle 8775
volk 8776
präsentieren 8777
kombination 8778
geheimnis 8779
liefert 8780
reiche 8781
kirche 8782
diszi@@ 8783
kriege 8784
resultat 8785
wofür 8786
darstellen 8787
bemerken 8788
zeigten 8789
echtz@@ 8790
üben 8791
hierher 8792
afrikas 8793
analyse 8794
the-@@ 8795
licen@@ 8796
strated 8797
goods 8798
unusual 8799
components 8800
grid 8801
farmer 8802
bottle 8803
bubble 8804
u.k. 8805
ous@@ 8806
faith 8807
king@@ 8808
received 8809
pir@@ 8810
ength 8811
laugh@@ 8812
illegal 8813
crowd 8814
psychology 8815
solving 8816
watched 8817
bow@@ 8818
pilot 8819
shark 8820
pool 8821
sensitive 8822
staf@@ 8823
dinosau@@ 8824
internationale 8825
rad@@ 8826
chimpanze@@ 8827
comfort 8828
penguins 8829
ek@@ 8830
lige 8831
leiter 8832
ertes 8833
felder 8834
einfaches 8835
nähr@@ 8836
sequenz 8837
kanada 8838
solcher 8839
überlegen 8840
bezüglich 8841
versagen 8842
willen 8843
selbstverständlich 8844
voraus 8845
schritt@@ 8846
verteilung 8847
physiker 8848
neh@@ 8849
setzten 8850
völ@@ 8851
unglaub@@ 8852
gemeinsame 8853
bestand@@ 8854
schalt@@ 8855
katastrophe 8856
veränderte 8857
fehlen 8858
fassung 8859
untersuchung 8860
pazi@@ 8861
hre 8862
großartigen 8863
pollution 8864
milk 8865
broke 8866
ride 8867
exam@@ 8868
soci@@ 8869
pau@@ 8870
tax@@ 8871
sav@@ 8872
pay@@ 8873
hol 8874
water@@ 8875
ballo@@ 8876
remin@@ 8877
versi@@ 8878
consumer 8879
arri@@ 8880
inevi@@ 8881
baseball 8882
pulled 8883
bag 8884
carefully 8885
thin 8886
runs 8887
burning 8888
multi-@@ 8889
ax@@ 8890
imple@@ 8891
ids 8892
noon 8893
musical 8894
integr@@ 8895
birthday 8896
cast 8897
sustain@@ 8898
meetings 8899
ancestors 8900
se-@@ 8901
unit 8902
watt 8903
need@@ 8904
llan@@ 8905
five-@@ 8906
derer 8907
intro@@ 8908
angiogen@@ 8909
diesel@@ 8910
29 8911
pä@@ 8912
zep@@ 8913
rb 8914
belast@@ 8915
telef@@ 8916
gebieten 8917
füllen 8918
damen 8919
geschäf@@ 8920
kriegs@@ 8921
menschliches 8922
gün@@ 8923
vorhanden 8924
probieren 8925
bestä@@ 8926
anwendung 8927
entfernen 8928
änge 8929
vorhersagen 8930
zusammenge@@ 8931
verbrechen 8932
unterhaltung 8933
spun@@ 8934
fün@@ 8935
bene 8936
ebenen 8937
chtete 8938
landen 8939
pfund 8940
liebte 8941
inseln 8942
zität 8943
stammzellen 8944
collaboration 8945
clay 8946
dia 8947
verage 8948
labor@@ 8949
so-@@ 8950
manufacturing 8951
ga 8952
healthcare 8953
hospitals 8954
manage 8955
homo@@ 8956
lan 8957
co-@@ 8958
percentage 8959
temporary 8960
discussion 8961
wher@@ 8962
mirror 8963
copy@@ 8964
tig@@ 8965
lifest@@ 8966
grain 8967
zza 8968
member 8969
ingre@@ 8970
simpl@@ 8971
exercise 8972
input 8973
novel 8974
tracking 8975
asing 8976
burgh 8977
stere@@ 8978
roo@@ 8979
destruction 8980
tu 8981
court 8982
gover@@ 8983
shang@@ 8984
contin@@ 8985
invasi@@ 8986
entrop@@ 8987
geographic 8988
un 8989
gerei@@ 8990
proben 8991
gemeinschaften 8992
meist 8993
aktivitäten 8994
1.000 8995
chungen 8996
trennt 8997
zwischen@@ 8998
ausstellung 8999
vermeiden 9000
grundlage 9001
absicht 9002
mitta@@ 9003
unterstützt 9004
schönes 9005
legte 9006
wovon 9007
aturen 9008
bedenken 9009
agt 9010
bewus@@ 9011
komment@@ 9012
speziellen 9013
förmi@@ 9014
momentan 9015
versor@@ 9016
lächeln 9017
heirat@@ 9018
predat@@ 9019
restri@@ 9020
veter@@ 9021
oles@@ 9022
apri@@ 9023
remem@@ 9024
common@@ 9025
ethi@@ 9026
moment@@ 9027
resear@@ 9028
cutting 9029
ridi@@ 9030
counter 9031
six@@ 9032
mush@@ 9033
xide 9034
you@@ 9035
treat@@ 9036
mistakes 9037
gigan@@ 9038
stol@@ 9039
empathy 9040
umines@@ 9041
golden 9042
2011 9043
interests 9044
sms 9045
behavi@@ 9046
wheel@@ 9047
ffer 9048
brazil 9049
hollywood 9050
hous@@ 9051
neuron 9052
arab 9053
finger@@ 9054
w. 9055
bart 9056
psychop@@ 9057
schwa@@ 9058
holz@@ 9059
halb@@ 9060
chteten 9061
stück@@ 9062
umfeld 9063
langfri@@ 9064
sungen 9065
schrecklich 9066
grafik 9067
mlich 9068
macher 9069
darunter 9070
annahme 9071
übernehmen 9072
verbreitung 9073
erweitern 9074
verwir@@ 9075
phän@@ 9076
här@@ 9077
weis 9078
usch 9079
schnitt@@ 9080
jahrzehnt 9081
tious 9082
situations 9083
urban@@ 9084
sue 9085
susta@@ 9086
genu@@ 9087
mana@@ 9088
comple@@ 9089
schwarz@@ 9090
story@@ 9091
kore@@ 9092
ual 9093
austr@@ 9094
still@@ 9095
schriften 9096
verne@@ 9097
weih@@ 9098
taucht 9099
schauten 9100
sprecher 9101
caus@@ 9102
tribu@@ 9103
phenomen@@ 9104
gent 9105
dered 9106
arily 9107
ye 9108
deci@@ 9109
thr@@ 9110
uss@@ 9111
atur@@ 9112
tats@@ 9113
seits 9114
beobach@@ 9115
richt@@ 9116
begei@@ 9117
signi@@ 9118
risi@@ 9119
trum 9120
ktoren 9121
verantwor@@ 9122
amerikan@@ 9123
tual 9124
bec@@ 9125
zent@@ 9126
danken 9127
chst 9128
revol@@ 9129
ress 9130
thou@@ 9131
q 9132
alt@@ 9133
sst 9134
entwick@@ 9135
zufä@@ 9136
zivili@@ 9137
fascin@@ 9138
kill@@ 9139
competi@@ 9140
confli@@ 9141
vil@@ 9142
intelli@@ 9143
tube 9144
jahrhunder@@ 9145
assen 9146
haup@@ 9147
ener@@ 9148
unger 9149
mary 9150
simil@@ 9151
stamm@@ 9152
gendes 9153
unterschei@@ 9154
allen@@ 9155
ada@@ 9156
increas@@ 9157
vehi@@ 9158
wart 9159
w-@@ 9160
tra 9161
stati@@ 9162
zel@@ 9163
mmt 9164
kümm@@ 9165
gesund@@ 9166
verstän@@ 9167
abor@@ 9168
popul@@ 9169
mou@@ 9170
foc@@ 9171
use@@ 9172
b. 9173
mam@@ 9174
lossen 9175
denten 9176
benu@@ 9177
zusä@@ 9178
taus@@ 9179
duced 9180
tech@@ 9181
less@@ 9182
gil@@ 9183
success@@ 9184
zwe@@ 9185
discus@@ 9186
iting 9187
curr@@ 9188
soft 9189
transforma@@ 9190
certain@@ 9191
sons 9192
gangen 9193
vermei@@ 9194
gefäng@@ 9195
fang 9196
urspr@@ 9197
strug@@ 9198
add@@ 9199
beha@@ 9200
mir@@ 9201
afgh@@ 9202
diff@@ 9203
flei@@ 9204
aster 9205
elec@@ 9206
spru@@ 9207
beding@@ 9208
grü@@ 9209
troffen 9210
spür@@ 9211
entrepr@@ 9212
phot@@ 9213
bacteri@@ 9214
sud@@ 9215
scop@@ 9216
compon@@ 9217
stern@@ 9218
bewusst@@ 9219
schre@@ 9220
grafi@@ 9221
konta@@ 9222
nachzu@@ 9223
hood 9224
partment 9225
neur@@ 9226
präsen@@ 9227
dür@@ 9228
interessi@@ 9229
inde@@ 9230
mean@@ 9231
hall@@ 9232
öffent@@ 9233
schir@@ 9234
nö@@ 9235
turen 9236
das@@ 9237
year-@@ 9238
espe@@ 9239
requ@@ 9240
hlen@@ 9241
bür@@ 9242
maß 9243
citi@@ 9244
fic@@ 9245
theor@@ 9246
manufac@@ 9247
justi@@ 9248
absol@@ 9249
glau@@ 9250
kation 9251
great@@ 9252
dama@@ 9253
umin@@ 9254
eil 9255
crea@@ 9256
vy 9257
hus@@ 9258
turing 9259
dacht 9260
bieren 9261
verfüg@@ 9262
samkeit 9263
surpris@@ 9264
prepar@@ 9265
alo@@ 9266
mitt@@ 9267
fam@@ 9268
commun@@ 9269
partic@@ 9270
metaph@@ 9271
mexi@@ 9272
amei@@ 9273
benö@@ 9274
unterstü@@ 9275
ind 9276
vulner@@ 9277
strat@@ 9278
bak@@ 9279
seri@@ 9280
py@@ 9281
masch@@ 9282
rän@@ 9283
schlüs@@ 9284
archite@@ 9285
usual 9286
follo@@ 9287
dol@@ 9288
profess@@ 9289
distri@@ 9290
erwachsen@@ 9291
medikam@@ 9292
commer@@ 9293
ve-@@ 9294
what@@ 9295
collap@@ 9296
vered 9297
proper@@ 9298
zations 9299
mmer 9300
nien 9301
überra@@ 9302
zö@@ 9303
interest@@ 9304
indepen@@ 9305
ually 9306
viol@@ 9307
spee@@ 9308
tude 9309
aly@@ 9310
rem 9311
gehir@@ 9312
agri@@ 9313
quot@@ 9314
eping 9315
… 9316
ston 9317
krat@@ 9318
aufmerk@@ 9319
herauszu@@ 9320
gebur@@ 9321
pan 9322
+ 9323
coll@@ 9324
sth@@ 9325
á@@ 9326
hm@@ 9327
schön@@ 9328
häufi@@ 9329
ernähr@@ 9330
oms 9331
foun@@ 9332
long-@@ 9333
ama 9334
gery 9335
disc@@ 9336
aper 9337
asse@@ 9338
ameri@@ 9339
mäd@@ 9340
abhän@@ 9341
zusam@@ 9342
wettbewer@@ 9343
abo@@ 9344
tely 9345
eth 9346
stly 9347
ira@@ 9348
nia 9349
manu@@ 9350
stan 9351
fic 9352
pie@@ 9353
kir@@ 9354
dere 9355
gelö@@ 9356
architek@@ 9357
oud 9358
zens 9359
deep@@ 9360
stors 9361
brilli@@ 9362
vels 9363
muse@@ 9364
dow@@ 9365
relev@@ 9366
perspe@@ 9367
weal@@ 9368
gir@@ 9369
dings 9370
phen@@ 9371
nahr@@ 9372
näch@@ 9373
genan@@ 9374
jä@@ 9375
grupp@@ 9376
trou@@ 9377
tery 9378
sugge@@ 9379
mous 9380
keiten 9381
verhäl@@ 9382
lieder 9383
zau@@ 9384
blich 9385
einfa@@ 9386
wesent@@ 9387
fortunately 9388
imp@@ 9389
bub@@ 9390
rely 9391
listen@@ 9392
tempor@@ 9393
wirkungen 9394
fs@@ 9395
spie@@ 9396
ance@@ 9397
lap@@ 9398
ttle 9399
expen@@ 9400
alia 9401
ond 9402
ause 9403
ision 9404
ghter 9405
möglich@@ 9406
geg@@ 9407
alls 9408
astrop@@ 9409
class@@ 9410
collea@@ 9411
questi@@ 9412
num@@ 9413
bili@@ 9414
zahlt 9415
unterschied@@ 9416
dnis 9417
soll@@ 9418
democra@@ 9419
moun@@ 9420
nee@@ 9421
ires 9422
enced 9423
stim@@ 9424
hing@@ 9425
tsam 9426
richti@@ 9427
kräf@@ 9428
umgeb@@ 9429
danger@@ 9430
goog@@ 9431
consci@@ 9432
dation 9433
mor 9434
let@@ 9435
confi@@ 9436
ire 9437
fot@@ 9438
präsent@@ 9439
with@@ 9440
kind@@ 9441
infra@@ 9442
pon 9443
evi@@ 9444
mathema@@ 9445
rs 9446
mption 9447
libr@@ 9448
ony@@ 9449
event@@ 9450
vag@@ 9451
halten@@ 9452
sauer@@ 9453
konzent@@ 9454
gle 9455
immedi@@ 9456
cise 9457
com 9458
boun@@ 9459
mote 9460
ban 9461
kilome@@ 9462
neighbor@@ 9463
ings@@ 9464
schirm 9465
erfahr@@ 9466
ices 9467
condi@@ 9468
engine@@ 9469
beh@@ 9470
world@@ 9471
decisi@@ 9472
poe@@ 9473
hori@@ 9474
eben@@ 9475
recy@@ 9476
transp@@ 9477
einflus@@ 9478
molekü@@ 9479
grundsä@@ 9480
verursa@@ 9481
pollu@@ 9482
expe@@ 9483
vil 9484
choo@@ 9485
medic@@ 9486
ghtly 9487
bile 9488
diskus@@ 9489
ergeb@@ 9490
kör@@ 9491
cei@@ 9492
diffic@@ 9493
bang@@ 9494
ap 9495
paki@@ 9496
traff@@ 9497
tex 9498
zwi@@ 9499
kürz@@ 9500
pid 9501
exist@@ 9502
ross 9503
sug@@ 9504
eness 9505
ital 9506
rul@@ 9507
liebl@@ 9508
geräu@@ 9509
› 9510
‹ 9511
eing 9512
won@@ 9513
atmosp@@ 9514
ollywood 9515
fiel@@ 9516
keit 9517
einfl@@ 9518
jenigen 9519
experi@@ 9520
iness 9521
inging 9522
satur@@ 9523
rying 9524
pedia 9525
internation@@ 9526
asy 9527
bron@@ 9528
kehr 9529
konfer@@ 9530
strahl@@ 9531
ada 9532
signific@@ 9533
midd@@ 9534
know@@ 9535
psy@@ 9536
mers 9537
pengu@@ 9538
.. 9539
zept 9540
carb@@ 9541
vent 9542
vel 9543
iety 9544
teach@@ 9545
clear@@ 9546
fundam@@ 9547
ersta@@ 9548
erkan@@ 9549
tötet 9550
valu@@ 9551
doc@@ 9552
chur@@ 9553
cess@@ 9554
protot@@ 9555
busin@@ 9556
valent 9557
k. 9558
zusagen 9559
seem@@ 9560
cum@@ 9561
utes 9562
photogra@@ 9563
tty 9564
oly@@ 9565
strateg@@ 9566
beten 9567
vereinig@@ 9568
inier@@ 9569
verbin@@ 9570
übri@@ 9571
wirt@@ 9572
read@@ 9573
concern@@ 9574
zy 9575
peop@@ 9576
phic 9577
zar@@ 9578
strate@@ 9579
ktu@@ 9580
vey 9581
chtigkeit 9582
gründet 9583
campaig@@ 9584
environ@@ 9585
rais@@ 9586
landscap@@ 9587
prac@@ 9588
abili@@ 9589
stab 9590
face@@ 9591
zugän@@ 9592
oze@@ 9593
wett@@ 9594
avo@@ 9595
stud@@ 9596
knowle@@ 9597
machin@@ 9598
eri@@ 9599
eting 9600
wiki@@ 9601
extrem@@ 9602
° 9603
verhalten@@ 9604
previ@@ 9605
cient 9606
spea@@ 9607
big@@ 9608
fashi@@ 9609
soldi@@ 9610
gala@@ 9611
dnung 9612
wahrneh@@ 9613
män@@ 9614
there@@ 9615
remark@@ 9616
earli@@ 9617
symp@@ 9618
ih@@ 9619
rieb 9620
prise 9621
cogni@@ 9622
inven@@ 9623
omen@@ 9624
vide@@ 9625
bibli@@ 9626
öhn@@ 9627
vorhan@@ 9628
verständlich 9629
gä@@ 9630
tioned 9631
ques 9632
oce@@ 9633
selves 9634
soc@@ 9635
dit 9636
absolu@@ 9637
geneh@@ 9638
cris@@ 9639
sup@@ 9640
) 9641
cess 9642
auton@@ 9643
equi@@ 9644
beauti@@ 9645
anno@@ 9646
tali@@ 9647
pers@@ 9648
lik@@ 9649
agieren 9650
forschen 9651
kunde 9652
dden 9653
sands 9654
britan@@ 9655
ring@@ 9656
vili@@ 9657
ficial 9658
mber 9659
storben 9660
milliar@@ 9661
gues 9662
pathy 9663
princi@@ 9664
hri@@ 9665
ange 9666
ermög@@ 9667
genheit 9668
geschwindi@@ 9669
famili@@ 9670
yel@@ 9671
osau@@ 9672
sequences 9673
figh@@ 9674
deb@@ 9675
terr@@ 9676
publik@@ 9677
rät@@ 9678
quick@@ 9679
rd 9680
scap@@ 9681
scienti@@ 9682
adul@@ 9683
intelle@@ 9684
iti 9685
aum 9686
häus@@ 9687
interess@@ 9688
beeinflus@@ 9689
convin@@ 9690
anthro@@ 9691
appropri@@ 9692
performan@@ 9693
call@@ 9694
vid 9695
exer@@ 9696
responsi@@ 9697
xic@@ 9698
att 9699
stert 9700
mittl@@ 9701
teili@@ 9702
plö@@ 9703
grow@@ 9704
kle 9705
= 9706
karri@@ 9707
½ 9708
beispiel@@ 9709
mög@@ 9710
itely 9711
fically 9712
tish 9713
fft 9714
dab@@ 9715
hindern 9716
schimpan@@ 9717
gespro@@ 9718
anim@@ 9719
actu@@ 9720
suc@@ 9721
euro@@ 9722
unity 9723
pian@@ 9724
issu@@ 9725
kay 9726
volun@@ 9727
malari@@ 9728
ó@@ 9729
them@@ 9730
hmen@@ 9731
ehen 9732
base@@ 9733
perfor@@ 9734
effici@@ 9735
ctly 9736
oxy@@ 9737
through@@ 9738
gebra@@ 9739
hospit@@ 9740
² 9741
zeitig 9742
easi@@ 9743
bilities 9744
electri@@ 9745
sear@@ 9746
diab@@ 9747
engl@@ 9748
olly@@ 9749
kalifor@@ 9750
herausforder@@ 9751
erweise 9752
gebie@@ 9753
brazi@@ 9754
notic@@ 9755
child@@ 9756
ousness 9757
passion@@ 9758
@ 9759
tops 9760
milit@@ 9761
trilli@@ 9762
dee@@ 9763
hren@@ 9764
hundre@@ 9765
chers 9766
zine 9767
him@@ 9768
ultima@@ 9769
í@@ 9770
pagne 9771
è@@ 9772
marke@@ 9773
resour@@ 9774
other@@ 9775
inte@@ 9776
americ@@ 9777
gement 9778
meth@@ 9779
mathe@@ 9780
aufgab@@ 9781
verän@@ 9782
onnen 9783
psychi@@ 9784
erzä@@ 9785
simp@@ 9786
phar@@ 9787
energ@@ 9788
nst 9789
wech@@ 9790
ould 9791
kratie 9792
verblü@@ 9793
verbra@@ 9794
bevölk@@ 9795
affe@@ 9796
shou@@ 9797
angi@@ 9798
capac@@ 9799
isla@@ 9800
entde@@ 9801
‟ 9802
alg@@ 9803
maj@@ 9804
stero@@ 9805
situ@@ 9806
accor@@ 9807
großbritan@@ 9808
restau@@ 9809
geschie@@ 9810
tality 9811
effec@@ 9812
deca@@ 9813
ske@@ 9814
marri@@ 9815
til 9816
jour@@ 9817
grou@@ 9818
tol@@ 9819
chro@@ 9820
presi@@ 9821
feed@@ 9822
bedingt 9823
fasz@@ 9824
eicht 9825
jem@@ 9826
bezieh@@ 9827
ressour@@ 9828
schied 9829
schieden 9830
ough@@ 9831
cals 9832
socie@@ 9833
tremend@@ 9834
awar@@ 9835
ogen@@ 9836
intellec@@ 9837
flori@@ 9838
prinzipi@@ 9839
funden 9840
wichtig@@ 9841
lieb 9842
entfer@@ 9843
benef@@ 9844
employe@@ 9845
rant 9846
# 9847
safe@@ 9848
wus@@ 9849
gesell@@ 9850
haupt 9851
xt 9852
geschw@@ 9853
ächlich 9854
‚ 9855
kalien 9856
ests 9857
patter@@ 9858
vail@@ 9859
mista@@ 9860
europe@@ 9861
avail@@ 9862
straß@@ 9863
haupts@@ 9864
elektri@@ 9865
beinhal@@ 9866
rhy@@ 9867
ult 9868
ruption 9869
( 9870
.b. 9871
fert 9872
abli@@ 9873
dafri@@ 9874
zeital@@ 9875
schizop@@ 9876
foreig@@ 9877
nerv@@ 9878
n. 9879
för@@ 9880
bess@@ 9881
künf@@ 9882
solu@@ 9883
professi@@ 9884
birth@@ 9885
complic@@ 9886
tea@@ 9887
etz 9888
natu@@ 9889
wies@@ 9890
agen 9891
β@@ 9892
fren@@ 9893
comfort@@ 9894
mole@@ 9895
efully 9896
ñ@@ 9897
ith 9898
geria 9899
dn 9900
sophi@@ 9901
seit@@ 9902
ihr@@ 9903
leist@@ 9904
‒ 9905
job@@ 9906
your@@ 9907
instit@@ 9908
gni@@ 9909
where@@ 9910
intu@@ 9911
cule 9912
diag@@ 9913
posite 9914
à 9915
sep@@ 9916
ungefä@@ 9917
famil@@ 9918
astern 9919
ote 9920
gem@@ 9921
pflich@@ 9922
onlin@@ 9923
bestim@@ 9924
afghani@@ 9925
pover@@ 9926
rough@@ 9927
relation@@ 9928
weapon@@ 9929
invisi@@ 9930
^ 9931
dimen@@ 9932
europ@@ 9933
erwei@@ 9934
autom@@ 9935
ü 9936
fahr 9937
mosp@@ 9938
häre 9939
stom@@ 9940
thom@@ 9941
norm@@ 9942
beau@@ 9943
exac@@ 9944
paci@@ 9945
det@@ 9946
fäng@@ 9947
letzten@@ 9948
curity 9949
reme@@ 9950
rami@@ 9951
quas@@ 9952
auß@@ 9953
bedür@@ 9954
versums 9955
unser@@ 9956
chir@@ 9957
mexic@@ 9958
telev@@ 9959
dise@@ 9960
ç@@ 9961
ã@@ 9962
emo@@ 9963
destru@@ 9964
movi@@ 9965
cisco 9966
manhat@@ 9967
geschaff@@ 9968
gegent@@ 9969
galaxi@@ 9970
chic@@ 9971
two@@ 9972
minde@@ 9973
gyp@@ 9974
falt 9975
na-@@ 9976
müs@@ 9977
ttel 9978
ê@@ 9979
í 9980
_ 9981
cept 9982
entre@@ 9983
compan@@ 9984
stead 9985
aga@@ 9986
califor@@ 9987
micha@@ 9988
ernsth@@ 9989
alzhei@@ 9990
zumin@@ 9991
züglich 9992
vices 9993
percent@@ 9994
expon@@ 9995
raid 9996
health@@ 9997
slow@@ 9998
pment 9999
lebe@@ 10000
irgen@@ 10001
osop@@ 10002
galax@@ 10003
onder@@ 10004
zeugt 10005
prinzi@@ 10006
 10007
buchstä@@ 10008
ully 10009
feel@@ 10010
ween 10011
kog@@ 10012
viron@@ 10013
tice 10014
* 10015
mend@@ 10016
zop@@ 10017
ement@@ 10018
äume 10019
trotz@@ 10020
amera 10021
ó 10022
econ@@ 10023
langu@@ 10024
silic@@ 10025
ø@@ 10026
â@@ 10027
industr@@ 10028
degre@@ 10029
etes 10030
opport@@ 10031
garti@@ 10032
ution@@ 10033
intel@@ 10034
elek@@ 10035
¥ 10036
inst 10037
viell@@ 10038
 10039
 10040
disci@@ 10041
pite 10042
othe@@ 10043
ā@@ 10044
fore 10045
ú@@ 10046
อ@@ 10047
ernt 10048
ück 10049
zhei@@ 10050
vertr@@ 10051
beson@@ 10052
ö 10053
gespi@@ 10054
flä@@ 10055
chmal 10056
` 10057
­ 10058
 10059
incredi@@ 10060
complex@@ 10061
ô@@ 10062
goti@@ 10063
toge@@ 10064
happen@@ 10065
liqu@@ 10066
every@@ 10067
eler@@ 10068
possi@@ 10069
â 10070
 10071
 10072
yester@@ 10073
£ 10074
smit@@ 10075
³ 10076
ä 10077
washing@@ 10078
verbess@@ 10079
orith@@ 10080
kens@@ 10081
β 10082
¼ 10083
began@@ 10084
× 10085
œ@@ 10086
ë@@ 10087
hosp@@ 10088
meet@@ 10089
ï@@ 10090
dership 10091
è 10092
casi@@ 10093
bras@@ 10094
€ 10095
送@@ 10096
你@@ 10097
葱 10098
ร 10099
่ 10100
\ 10101
hund@@ 10102
richt 10103
bekan@@ 10104
beina@@ 10105
bey@@ 10106
erlau@@ 10107
© 10108
`@@ 10109
å@@ 10110
indivi@@ 10111
windo@@ 10112
obvi@@ 10113
charac@@ 10114
denly 10115
ffee 10116
rants 10117
unities 10118
devel@@ 10119
childr@@ 10120
ă@@ 10121
ť 10122
effi@@ 10123
ē 10124
ย@@ 10125
ย 10126
ć 10127
ý@@ 10128
import@@ 10129
﻿ 10130
ō@@ 10131
irgendet@@ 10132
¾ 10133
esn 10134
š@@ 10135
jeden@@ 10136
， 10137
á 10138
к@@ 10139
niem@@ 10140
ë 10141
® 10142
à@@ 10143
perha@@ 10144
ӓ@@ 10145
î@@ 10146
paig@@ 10147
